#include "model_data.h"

const unsigned char converted_model_tflite[] = {
  0x1c, 0x00, 0x00, 0x00, 0x54, 0x46, 0x4c, 0x33, 0x14, 0x00, 0x20, 0x00,
  0x1c, 0x00, 0x18, 0x00, 0x14, 0x00, 0x10, 0x00, 0x0c, 0x00, 0x00, 0x00,
  0x08, 0x00, 0x04, 0x00, 0x14, 0x00, 0x00, 0x00, 0x1c, 0x00, 0x00, 0x00,
  0x84, 0x00, 0x00, 0x00, 0xdc, 0x00, 0x00, 0x00, 0xa0, 0x2c, 0x00, 0x00,
  0xb0, 0x2c, 0x00, 0x00, 0x60, 0x47, 0x00, 0x00, 0x03, 0x00, 0x00, 0x00,
  0x01, 0x00, 0x00, 0x00, 0x04, 0x00, 0x00, 0x00, 0xde, 0xd1, 0xff, 0xff,
  0x0c, 0x00, 0x00, 0x00, 0x1c, 0x00, 0x00, 0x00, 0x3c, 0x00, 0x00, 0x00,
  0x0f, 0x00, 0x00, 0x00, 0x73, 0x65, 0x72, 0x76, 0x69, 0x6e, 0x67, 0x5f,
  0x64, 0x65, 0x66, 0x61, 0x75, 0x6c, 0x74, 0x00, 0x01, 0x00, 0x00, 0x00,
  0x04, 0x00, 0x00, 0x00, 0x98, 0xff, 0xff, 0xff, 0x21, 0x00, 0x00, 0x00,
  0x04, 0x00, 0x00, 0x00, 0x08, 0x00, 0x00, 0x00, 0x64, 0x65, 0x6e, 0x73,
  0x65, 0x5f, 0x31, 0x37, 0x00, 0x00, 0x00, 0x00, 0x01, 0x00, 0x00, 0x00,
  0x04, 0x00, 0x00, 0x00, 0xfa, 0xd2, 0xff, 0xff, 0x04, 0x00, 0x00, 0x00,
  0x07, 0x00, 0x00, 0x00, 0x69, 0x6e, 0x70, 0x75, 0x74, 0x5f, 0x36, 0x00,
  0x02, 0x00, 0x00, 0x00, 0x34, 0x00, 0x00, 0x00, 0x04, 0x00, 0x00, 0x00,
  0xdc, 0xff, 0xff, 0xff, 0x24, 0x00, 0x00, 0x00, 0x04, 0x00, 0x00, 0x00,
  0x13, 0x00, 0x00, 0x00, 0x43, 0x4f, 0x4e, 0x56, 0x45, 0x52, 0x53, 0x49,
  0x4f, 0x4e, 0x5f, 0x4d, 0x45, 0x54, 0x41, 0x44, 0x41, 0x54, 0x41, 0x00,
  0x08, 0x00, 0x0c, 0x00, 0x08, 0x00, 0x04, 0x00, 0x08, 0x00, 0x00, 0x00,
  0x23, 0x00, 0x00, 0x00, 0x04, 0x00, 0x00, 0x00, 0x13, 0x00, 0x00, 0x00,
  0x6d, 0x69, 0x6e, 0x5f, 0x72, 0x75, 0x6e, 0x74, 0x69, 0x6d, 0x65, 0x5f,
  0x76, 0x65, 0x72, 0x73, 0x69, 0x6f, 0x6e, 0x00, 0x25, 0x00, 0x00, 0x00,
  0xc0, 0x2b, 0x00, 0x00, 0xb8, 0x2b, 0x00, 0x00, 0xa0, 0x2b, 0x00, 0x00,
  0xe0, 0x29, 0x00, 0x00, 0x90, 0x29, 0x00, 0x00, 0x70, 0x29, 0x00, 0x00,
  0x50, 0x29, 0x00, 0x00, 0x40, 0x20, 0x00, 0x00, 0xf0, 0x1f, 0x00, 0x00,
  0xd0, 0x1f, 0x00, 0x00, 0xb0, 0x1f, 0x00, 0x00, 0x20, 0x1b, 0x00, 0x00,
  0xf0, 0x1a, 0x00, 0x00, 0x60, 0x02, 0x00, 0x00, 0x10, 0x02, 0x00, 0x00,
  0x80, 0x01, 0x00, 0x00, 0x50, 0x01, 0x00, 0x00, 0x28, 0x01, 0x00, 0x00,
  0x0c, 0x01, 0x00, 0x00, 0x04, 0x01, 0x00, 0x00, 0xfc, 0x00, 0x00, 0x00,
  0xf4, 0x00, 0x00, 0x00, 0xec, 0x00, 0x00, 0x00, 0xe4, 0x00, 0x00, 0x00,
  0xdc, 0x00, 0x00, 0x00, 0xd4, 0x00, 0x00, 0x00, 0xcc, 0x00, 0x00, 0x00,
  0xc4, 0x00, 0x00, 0x00, 0xbc, 0x00, 0x00, 0x00, 0xb4, 0x00, 0x00, 0x00,
  0xac, 0x00, 0x00, 0x00, 0xa4, 0x00, 0x00, 0x00, 0x9c, 0x00, 0x00, 0x00,
  0x94, 0x00, 0x00, 0x00, 0x8c, 0x00, 0x00, 0x00, 0x6c, 0x00, 0x00, 0x00,
  0x04, 0x00, 0x00, 0x00, 0x02, 0xd4, 0xff, 0xff, 0x04, 0x00, 0x00, 0x00,
  0x58, 0x00, 0x00, 0x00, 0x0c, 0x00, 0x00, 0x00, 0x08, 0x00, 0x0e, 0x00,
  0x08, 0x00, 0x04, 0x00, 0x08, 0x00, 0x00, 0x00, 0x10, 0x00, 0x00, 0x00,
  0x28, 0x00, 0x00, 0x00, 0x00, 0x00, 0x06, 0x00, 0x08, 0x00, 0x04, 0x00,
  0x06, 0x00, 0x00, 0x00, 0x04, 0x00, 0x00, 0x00, 0x01, 0x00, 0x00, 0x00,
  0xeb, 0x03, 0x00, 0x00, 0x00, 0x00, 0x0a, 0x00, 0x10, 0x00, 0x0c, 0x00,
  0x08, 0x00, 0x04, 0x00, 0x0a, 0x00, 0x00, 0x00, 0x02, 0x00, 0x00, 0x00,
  0x02, 0x00, 0x00, 0x00, 0x04, 0x00, 0x00, 0x00, 0x05, 0x00, 0x00, 0x00,
  0x32, 0x2e, 0x39, 0x2e, 0x31, 0x00, 0x00, 0x00, 0x66, 0xd4, 0xff, 0xff,
  0x04, 0x00, 0x00, 0x00, 0x10, 0x00, 0x00, 0x00, 0x31, 0x2e, 0x31, 0x34,
  0x2e, 0x30, 0x00, 0x00, 0x00, 0x00, 0x00, 0x00, 0x00, 0x00, 0x00, 0x00,
  0xc4, 0xba, 0xff, 0xff, 0xc8, 0xba, 0xff, 0xff, 0xcc, 0xba, 0xff, 0xff,
  0xd0, 0xba, 0xff, 0xff, 0xd4, 0xba, 0xff, 0xff, 0xd8, 0xba, 0xff, 0xff,
  0xdc, 0xba, 0xff, 0xff, 0xe0, 0xba, 0xff, 0xff, 0xe4, 0xba, 0xff, 0xff,
  0xe8, 0xba, 0xff, 0xff, 0xec, 0xba, 0xff, 0xff, 0xf0, 0xba, 0xff, 0xff,
  0xf4, 0xba, 0xff, 0xff, 0xf8, 0xba, 0xff, 0xff, 0xfc, 0xba, 0xff, 0xff,
  0x00, 0xbb, 0xff, 0xff, 0xc2, 0xd4, 0xff, 0xff, 0x04, 0x00, 0x00, 0x00,
  0x0c, 0x00, 0x00, 0x00, 0x87, 0x02, 0x00, 0x00, 0xca, 0xfc, 0xff, 0xff,
  0xc2, 0x00, 0x00, 0x00, 0xda, 0xd4, 0xff, 0xff, 0x04, 0x00, 0x00, 0x00,
  0x18, 0x00, 0x00, 0x00, 0xe3, 0xf6, 0x57, 0x9c, 0x43, 0xa2, 0xf0, 0x02,
  0x65, 0x50, 0x7b, 0x3b, 0x5e, 0x2a, 0xfd, 0xc9, 0x73, 0x28, 0x11, 0x2f,
  0x81, 0x21, 0xcb, 0x45, 0xfe, 0xd4, 0xff, 0xff, 0x04, 0x00, 0x00, 0x00,
  0x20, 0x00, 0x00, 0x00, 0xea, 0xff, 0xff, 0xff, 0x54, 0xff, 0xff, 0xff,
  0x00, 0x00, 0x00, 0x00, 0x85, 0xff, 0xff, 0xff, 0xa5, 0xff, 0xff, 0xff,
  0x81, 0xfd, 0xff, 0xff, 0x90, 0xff, 0xff, 0xff, 0x88, 0x02, 0x00, 0x00,
  0x2a, 0xd5, 0xff, 0xff, 0x04, 0x00, 0x00, 0x00, 0x80, 0x00, 0x00, 0x00,
  0xd7, 0x49, 0x23, 0x8d, 0xda, 0xe4, 0xae, 0xa0, 0xa9, 0xcd, 0xbf, 0x4d,
  0xf2, 0x14, 0x43, 0x22, 0x7f, 0xcd, 0x1e, 0xd5, 0xb2, 0xc7, 0xd3, 0x1c,
  0xda, 0x43, 0x43, 0xce, 0xb0, 0xc7, 0xfa, 0x06, 0x5a, 0x00, 0x21, 0x10,
  0xaa, 0xb3, 0x06, 0x3c, 0x48, 0x6d, 0xaa, 0x90, 0x43, 0xe8, 0xaf, 0x99,
  0x2d, 0xc7, 0x47, 0xdd, 0x18, 0xd7, 0xd0, 0x90, 0x1a, 0xcf, 0x48, 0x15,
  0x3a, 0x24, 0x39, 0x9a, 0x9e, 0x31, 0xdf, 0x32, 0xd5, 0xbd, 0x0e, 0x35,
  0x70, 0x8b, 0x38, 0xe7, 0x2f, 0x30, 0x0d, 0xa5, 0xd6, 0x16, 0xbc, 0xf5,
  0x32, 0xa4, 0x60, 0x35, 0x09, 0xd0, 0x4c, 0xbe, 0x25, 0x93, 0xca, 0x2e,
  0xa6, 0x41, 0x93, 0x4d, 0xd5, 0xf4, 0xa9, 0xe5, 0x79, 0xff, 0x55, 0xde,
  0xa6, 0x2e, 0x93, 0xfe, 0x03, 0x49, 0x3c, 0xf0, 0x77, 0x69, 0x27, 0xed,
  0xbe, 0xa8, 0xcb, 0xab, 0xc4, 0x3f, 0x22, 0x11, 0xb6, 0xd5, 0xff, 0xff,
  0x04, 0x00, 0x00, 0x00, 0x40, 0x00, 0x00, 0x00, 0x05, 0x00, 0x00, 0x00,
  0x73, 0xfe, 0xff, 0xff, 0x88, 0xfe, 0xff, 0xff, 0xbf, 0xff, 0xff, 0xff,
  0xb9, 0xff, 0xff, 0xff, 0xd4, 0xfe, 0xff, 0xff, 0xaf, 0xfd, 0xff, 0xff,
  0xbf, 0xff, 0xff, 0xff, 0xe5, 0xfe, 0xff, 0xff, 0x6a, 0xfe, 0xff, 0xff,
  0x6e, 0xfe, 0xff, 0xff, 0x72, 0xff, 0xff, 0xff, 0x66, 0xfe, 0xff, 0xff,
  0x1b, 0xfe, 0xff, 0xff, 0xaa, 0x00, 0x00, 0x00, 0xeb, 0xfe, 0xff, 0xff,
  0x02, 0xd6, 0xff, 0xff, 0x04, 0x00, 0x00, 0x00, 0x80, 0x18, 0x00, 0x00,
  0x22, 0x1c, 0xfb, 0xd6, 0x12, 0x10, 0x37, 0x04, 0xd2, 0xbf, 0x4a, 0x29,
  0x2e, 0xb6, 0x16, 0x32, 0x22, 0x0f, 0x33, 0x27, 0x23, 0xef, 0x41, 0x14,
  0xbd, 0xc0, 0x15, 0xf7, 0x0e, 0x33, 0x14, 0xf3, 0x29, 0x34, 0xe8, 0xc4,
  0x3c, 0x37, 0xdb, 0xcf, 0xf2, 0xd4, 0xd7, 0xdc, 0xd2, 0xd8, 0xbb, 0xba,
  0xb6, 0x31, 0x2c, 0x35, 0x02, 0x3b, 0xf8, 0xc9, 0xe0, 0xca, 0x04, 0x3c,
  0xd9, 0x3a, 0xde, 0xb0, 0xb6, 0xc3, 0x04, 0x3f, 0xc0, 0xeb, 0xd4, 0x00,
  0xd9, 0x48, 0x24, 0xfa, 0x37, 0x14, 0x1d, 0xeb, 0xbf, 0xb8, 0x18, 0xbd,
  0x39, 0xbf, 0x1f, 0x03, 0xd5, 0x4d, 0xd4, 0x39, 0xe5, 0x21, 0x07, 0xe1,
  0x10, 0x00, 0xbe, 0x04, 0xe4, 0x21, 0x07, 0x11, 0xf3, 0xec, 0xd3, 0xc6,
  0x0e, 0x17, 0x08, 0x03, 0xfc, 0x49, 0xeb, 0xf1, 0x4b, 0xec, 0x0d, 0x33,
  0xdd, 0xb0, 0x00, 0x34, 0x42, 0xca, 0x2b, 0xdb, 0xb7, 0x1d, 0xdd, 0xac,
  0xc1, 0x3f, 0xbd, 0x33, 0xa2, 0x00, 0x45, 0x43, 0x4f, 0xf8, 0xc3, 0xe3,
  0x47, 0xd5, 0x1f, 0xf1, 0xec, 0x12, 0x2f, 0x20, 0x13, 0xb9, 0x3d, 0xc5,
  0xab, 0x19, 0x25, 0xe2, 0xba, 0x16, 0xc7, 0xae, 0x4e, 0x02, 0x43, 0xba,
  0x1a, 0xee, 0xcb, 0xcb, 0xde, 0xd5, 0xcd, 0xe6, 0xd7, 0xd8, 0xd1, 0x25,
  0xf0, 0x2c, 0x30, 0xd6, 0x16, 0x13, 0xa9, 0xc7, 0x1b, 0x01, 0xa8, 0x12,
  0xe7, 0x16, 0x15, 0xdc, 0x26, 0x13, 0xee, 0xbd, 0x43, 0x13, 0x16, 0xd4,
  0xbc, 0x20, 0xf2, 0x54, 0xd6, 0xd7, 0xcf, 0xfb, 0xe5, 0xdb, 0xea, 0xe2,
  0xf7, 0xef, 0xc3, 0xea, 0x02, 0xd8, 0xe0, 0xe7, 0x27, 0x2a, 0x30, 0x48,
  0x02, 0x35, 0x3b, 0xca, 0xdf, 0xba, 0xc1, 0x28, 0xef, 0xe8, 0xc3, 0x07,
  0x2a, 0xf7, 0xaf, 0x37, 0x14, 0xcd, 0xe0, 0xbb, 0xe2, 0xd2, 0x40, 0xa6,
  0x3d, 0x4e, 0xa6, 0xd8, 0xd0, 0xdd, 0xba, 0xaf, 0x1c, 0x1a, 0x1c, 0xe5,
  0xc0, 0x1e, 0xd1, 0xd5, 0x29, 0x05, 0x04, 0xcc, 0xc1, 0x20, 0xfb, 0xfb,
  0x46, 0xb8, 0xe2, 0xde, 0x4d, 0x32, 0x31, 0x0b, 0x14, 0xc2, 0x36, 0x14,
  0xae, 0x0c, 0xaf, 0xd7, 0xf8, 0xf7, 0x25, 0x3f, 0xe5, 0xea, 0xc5, 0xa9,
  0x2f, 0x32, 0x49, 0xb5, 0x0c, 0xf7, 0x3b, 0xe5, 0x11, 0xc9, 0xf6, 0xd1,
  0xf4, 0x1b, 0x52, 0xf0, 0x2b, 0x56, 0xb8, 0xc9, 0xfa, 0xc4, 0x2e, 0x16,
  0x18, 0x42, 0xc4, 0xdd, 0x24, 0x2f, 0xc3, 0xfd, 0xbb, 0x09, 0xd3, 0xad,
  0xd4, 0xb7, 0xbf, 0xb8, 0xbd, 0x17, 0x1d, 0xf4, 0xe4, 0x37, 0x3c, 0xe8,
  0x27, 0xd8, 0xdd, 0x23, 0x08, 0xee, 0xd6, 0xfd, 0x24, 0xc4, 0xca, 0x47,
  0xda, 0xdc, 0xb8, 0x06, 0xf2, 0x11, 0x1e, 0xd6, 0xec, 0x34, 0xf7, 0x18,
  0x5b, 0x36, 0xfc, 0xc0, 0x42, 0xc8, 0xd9, 0x06, 0x19, 0x27, 0xdb, 0xe8,
  0xef, 0xb3, 0x48, 0x2c, 0x12, 0xf6, 0xd6, 0xbe, 0xb6, 0x36, 0x15, 0x43,
  0xbf, 0xc3, 0x36, 0xd7, 0xcf, 0x45, 0x2a, 0x11, 0xec, 0xfc, 0x07, 0x06,
  0x24, 0xfc, 0x29, 0x3c, 0x39, 0xfd, 0xf2, 0xc8, 0xf1, 0x4a, 0x4d, 0xf7,
  0xdd, 0xbc, 0x18, 0x17, 0xfd, 0xd8, 0xea, 0x3b, 0xec, 0xe0, 0x13, 0xec,
  0xc2, 0x23, 0x39, 0x10, 0xe6, 0xd0, 0x3e, 0xd9, 0xef, 0x49, 0xc8, 0x08,
  0xc7, 0xdc, 0xdd, 0x2f, 0x1f, 0xbc, 0x12, 0x19, 0xfd, 0xc8, 0xc1, 0xc0,
  0x09, 0x40, 0xd9, 0x1b, 0x1a, 0xca, 0x40, 0xcc, 0xb5, 0x3e, 0xc7, 0xde,
  0x16, 0x19, 0xae, 0xec, 0x40, 0xe4, 0x0d, 0xde, 0xc3, 0xeb, 0xcb, 0xfd,
  0x27, 0xee, 0x0a, 0x1f, 0x3d, 0x21, 0xbc, 0x0f, 0xde, 0xc2, 0x07, 0xe3,
  0xdd, 0xc3, 0xc7, 0xe3, 0x17, 0xeb, 0xd3, 0xfd, 0x1e, 0x49, 0x22, 0xed,
  0x01, 0x2d, 0xc6, 0x26, 0xf7, 0xb3, 0xe7, 0xc8, 0x0f, 0x2a, 0xbc, 0x1b,
  0xba, 0xea, 0xe7, 0xda, 0xb3, 0xef, 0xbf, 0x1a, 0xbb, 0x04, 0x3d, 0xf2,
  0xdb, 0x1f, 0x2c, 0xad, 0xee, 0xd0, 0x26, 0xe7, 0x3a, 0x13, 0xf9, 0x00,
  0xc8, 0x21, 0xe7, 0xb4, 0x1c, 0xf9, 0xe2, 0xfa, 0xc6, 0xbb, 0xc4, 0x0a,
  0x1f, 0xe8, 0xc8, 0xbf, 0x3b, 0xfa, 0xc2, 0xf1, 0x2f, 0xc2, 0x01, 0x1a,
  0x2a, 0x03, 0x23, 0x2e, 0x38, 0xff, 0x10, 0xc9, 0xf0, 0xf7, 0xbf, 0xee,
  0x03, 0xe5, 0xad, 0xe3, 0xf6, 0xe0, 0x29, 0xbb, 0x1b, 0x03, 0x34, 0x0d,
  0xb3, 0x23, 0xff, 0xb3, 0x17, 0x20, 0xc6, 0x14, 0x37, 0xdd, 0xfe, 0xe4,
  0xa8, 0xdc, 0x2d, 0xf6, 0xf7, 0xe1, 0xf1, 0xb9, 0xd6, 0x14, 0xe9, 0xfa,
  0xd9, 0xce, 0xe9, 0xe2, 0xf4, 0x3c, 0x26, 0x4b, 0xda, 0x45, 0xd9, 0xfc,
  0x28, 0xe0, 0x0c, 0x27, 0xd7, 0xef, 0xfa, 0x47, 0x2b, 0xc6, 0x3d, 0x44,
  0xce, 0xd1, 0x49, 0x03, 0xf1, 0xc2, 0x0c, 0xee, 0x24, 0xd9, 0xe4, 0xbd,
  0xc8, 0xd7, 0xf8, 0xdf, 0x0d, 0xf1, 0xce, 0x24, 0xda, 0xd7, 0x2b, 0x16,
  0xed, 0x41, 0x48, 0x2e, 0x2a, 0x36, 0x03, 0xd8, 0x3b, 0xca, 0xdd, 0xde,
  0xc1, 0x18, 0x43, 0x23, 0x32, 0xd9, 0xbe, 0xe6, 0xda, 0x0a, 0xbc, 0xe2,
  0xfe, 0xe3, 0xcf, 0xc0, 0x35, 0xe9, 0x07, 0x42, 0xeb, 0xc8, 0xf5, 0xf1,
  0xc1, 0x0b, 0xc0, 0x1b, 0xe9, 0x0c, 0xfd, 0xfd, 0x03, 0x4a, 0xc6, 0xeb,
  0xd4, 0xed, 0xf4, 0xf0, 0xc5, 0x0d, 0xe3, 0x02, 0xbc, 0xd4, 0xbf, 0x03,
  0x15, 0x29, 0xfc, 0x52, 0x16, 0x23, 0xed, 0xc6, 0xc9, 0x4a, 0xf5, 0xc0,
  0x2f, 0xf8, 0xc5, 0xfd, 0xc4, 0x18, 0x0a, 0x3c, 0xfa, 0x12, 0xce, 0xde,
  0x36, 0x04, 0x1e, 0xc7, 0xff, 0xfb, 0xe2, 0x0b, 0x2e, 0x3d, 0x17, 0x08,
  0x41, 0xb5, 0xd9, 0xcf, 0x38, 0x03, 0xb3, 0xfb, 0xe6, 0xb4, 0xb1, 0xd0,
  0xba, 0x19, 0x17, 0xe9, 0xf6, 0xff, 0x39, 0xda, 0x04, 0xf4, 0xcb, 0xae,
  0x43, 0xc4, 0x02, 0x26, 0x02, 0xb3, 0xf9, 0x04, 0xaa, 0xe2, 0x3d, 0xe3,
  0xc7, 0x3c, 0xdf, 0xea, 0x13, 0x13, 0x14, 0xd6, 0xf4, 0x42, 0x06, 0xb7,
  0xda, 0xb0, 0x29, 0xd4, 0x01, 0x44, 0x0c, 0x18, 0xbe, 0x3b, 0xec, 0xd6,
  0xe5, 0xec, 0x0e, 0xc2, 0xda, 0xc0, 0x1e, 0xa3, 0xbc, 0x10, 0x44, 0xba,
  0xcb, 0x26, 0xe8, 0x0a, 0x0d, 0xee, 0xbe, 0x36, 0x43, 0xcb, 0x0d, 0xd9,
  0x17, 0x32, 0xfc, 0xc6, 0xb8, 0x44, 0x36, 0x0f, 0x3a, 0xd0, 0x11, 0x18,
  0x3b, 0x0a, 0x31, 0x26, 0x11, 0xd7, 0xcc, 0x22, 0x1f, 0xd1, 0x33, 0xf6,
  0xbe, 0xd0, 0x1f, 0xd3, 0xc6, 0x4d, 0x26, 0xc8, 0xe6, 0xc3, 0xe5, 0xd4,
  0xb7, 0x4d, 0xc3, 0xc4, 0xf7, 0xba, 0xcc, 0x2b, 0xb6, 0x45, 0x20, 0x4d,
  0xa8, 0xe7, 0x0f, 0x4a, 0xf3, 0xd7, 0x42, 0xf4, 0xc0, 0xf7, 0xe6, 0xc1,
  0x06, 0xb1, 0xed, 0xa7, 0x3d, 0x00, 0xc3, 0xf5, 0xb9, 0x45, 0x42, 0xbc,
  0xe4, 0x1c, 0xb9, 0xfe, 0xb4, 0x16, 0xbd, 0xc3, 0x32, 0xae, 0x44, 0x30,
  0x44, 0x14, 0x4a, 0x28, 0xdc, 0x3d, 0x25, 0xe6, 0xe5, 0x46, 0xb6, 0xda,
  0x07, 0xb5, 0x39, 0xe3, 0xe7, 0xed, 0x30, 0xcb, 0xf1, 0xf0, 0xb5, 0xf5,
  0xc6, 0xfa, 0x28, 0x12, 0xe9, 0xdf, 0xd6, 0x3c, 0xc0, 0x3b, 0xbb, 0x0a,
  0xf0, 0xbd, 0x45, 0x25, 0xe7, 0x30, 0xf8, 0xd8, 0x22, 0x07, 0x27, 0x48,
  0x4c, 0xbc, 0xb9, 0x37, 0x08, 0xfd, 0x03, 0xc0, 0x23, 0x12, 0x1b, 0x28,
  0x0d, 0xff, 0xef, 0x35, 0xfa, 0x0d, 0xf8, 0xe3, 0xb1, 0xd0, 0xe4, 0xfa,
  0xea, 0x17, 0x1c, 0x17, 0xab, 0xd0, 0x3d, 0xed, 0xd3, 0x0e, 0x26, 0x32,
  0xc6, 0xf1, 0x06, 0x28, 0xea, 0xe3, 0xd3, 0xc4, 0x3c, 0x16, 0xe4, 0xf8,
  0x19, 0xe4, 0xb9, 0x42, 0xd4, 0xb7, 0xff, 0x0f, 0xc0, 0x26, 0xd5, 0xf6,
  0xf8, 0xd8, 0xbf, 0xcd, 0xc6, 0x21, 0xbb, 0xe0, 0x34, 0x38, 0xbd, 0xd2,
  0xe8, 0x0a, 0xe2, 0x3f, 0x2e, 0x27, 0xe3, 0x26, 0xee, 0xd5, 0xde, 0xea,
  0x1c, 0x42, 0x3b, 0x33, 0x46, 0xed, 0x06, 0xb9, 0xee, 0x2f, 0x43, 0x40,
  0x08, 0x3a, 0x28, 0xee, 0x30, 0xe8, 0x35, 0x34, 0x26, 0x48, 0xfc, 0xef,
  0xc3, 0x3d, 0xd6, 0xdb, 0xeb, 0xbb, 0x03, 0xe5, 0x4a, 0xee, 0x01, 0xd5,
  0xf7, 0xf1, 0x3e, 0x43, 0x24, 0x27, 0xfc, 0x07, 0x2a, 0x3d, 0xf6, 0xe8,
  0x1d, 0xfe, 0x3b, 0x06, 0x1d, 0xcd, 0x45, 0xf5, 0xd5, 0x30, 0xc4, 0x3c,
  0x44, 0xcb, 0xae, 0xf5, 0x02, 0xf5, 0xbd, 0xfb, 0xf5, 0xdf, 0x42, 0x2a,
  0xfd, 0x1f, 0x02, 0xfa, 0x3a, 0x07, 0xbc, 0xcb, 0xeb, 0xde, 0xe2, 0xea,
  0xb4, 0x27, 0xd8, 0x2b, 0xfa, 0x11, 0xf2, 0x05, 0x3b, 0xf1, 0x29, 0xb3,
  0xb4, 0x0f, 0xfa, 0xdf, 0xb7, 0x31, 0xdf, 0xca, 0x49, 0xb9, 0xfe, 0xdb,
  0x43, 0x16, 0xb8, 0xc6, 0xc5, 0x1f, 0xcf, 0xc6, 0xcb, 0x3f, 0x2c, 0xbe,
  0x10, 0x3e, 0xc6, 0x46, 0x29, 0x1d, 0xdc, 0xbb, 0xe6, 0xba, 0xba, 0x0e,
  0xcd, 0x13, 0x1e, 0x3b, 0xee, 0x07, 0x36, 0x13, 0xef, 0x13, 0x54, 0x13,
  0xd2, 0x05, 0x24, 0x3c, 0x46, 0x13, 0x36, 0xb8, 0xf3, 0xd3, 0xea, 0x3f,
  0x07, 0x2e, 0x4d, 0xff, 0x29, 0x3d, 0xac, 0xee, 0x3f, 0x0c, 0x06, 0x2b,
  0xf9, 0xe7, 0xba, 0x3e, 0x42, 0x2f, 0xef, 0xf2, 0xf0, 0x3f, 0x31, 0xd7,
  0x35, 0x1f, 0x38, 0xb1, 0xe0, 0x42, 0x43, 0x4a, 0xc8, 0xf0, 0x0e, 0xdc,
  0xfe, 0xfe, 0x37, 0xb9, 0xfe, 0x49, 0x12, 0xe6, 0xbd, 0xdf, 0x1d, 0x2d,
  0x05, 0x20, 0x4c, 0x31, 0x05, 0x1d, 0x28, 0xd4, 0xd8, 0x10, 0x37, 0x3a,
  0xeb, 0x17, 0x19, 0xb4, 0x4a, 0xd0, 0xd8, 0xd6, 0xb9, 0x47, 0x30, 0xe7,
  0x46, 0xd2, 0xb6, 0xd2, 0xde, 0x4a, 0xef, 0x1c, 0x01, 0xcf, 0x16, 0xfc,
  0xbd, 0xe4, 0xfd, 0xe7, 0x28, 0x2d, 0x4d, 0xad, 0x01, 0xaf, 0x2d, 0x06,
  0x1d, 0x14, 0x32, 0xb6, 0xfe, 0x06, 0x0d, 0xb0, 0xfb, 0x1e, 0x39, 0xcc,
  0xe9, 0x0c, 0xc6, 0x09, 0x00, 0xc1, 0x1e, 0xb7, 0xe3, 0xf4, 0xd7, 0x2a,
  0x52, 0xef, 0x44, 0xda, 0x2c, 0xcb, 0x14, 0xdf, 0x19, 0xe3, 0xcd, 0x15,
  0x09, 0xfb, 0xe6, 0xe4, 0x46, 0xea, 0xca, 0x1c, 0xf4, 0xce, 0xe4, 0x2b,
  0x03, 0xd1, 0xf1, 0x47, 0xe8, 0xde, 0x27, 0xff, 0x41, 0xd3, 0x3e, 0xf7,
  0xca, 0xf3, 0xdb, 0x4b, 0x50, 0x41, 0x09, 0xca, 0x35, 0xda, 0x48, 0xfb,
  0xeb, 0xf3, 0x3c, 0x40, 0xb8, 0x2e, 0xd8, 0x42, 0x10, 0x02, 0xdd, 0xbf,
  0xb0, 0xc6, 0xef, 0x47, 0x21, 0x36, 0xe1, 0x27, 0xea, 0x16, 0xf0, 0x07,
  0x38, 0x15, 0x06, 0x44, 0x3f, 0x24, 0x2b, 0x31, 0xe8, 0x42, 0xca, 0xf9,
  0xeb, 0x30, 0x37, 0xe3, 0x61, 0xeb, 0x39, 0xf9, 0xe0, 0xd7, 0xdf, 0x49,
  0x62, 0xf6, 0xe0, 0x0b, 0x9f, 0x00, 0x51, 0xcb, 0x2a, 0xc8, 0x1a, 0xfa,
  0x2d, 0xb3, 0x14, 0x27, 0xf9, 0x22, 0x3a, 0x2a, 0x39, 0xc1, 0x38, 0x03,
  0xc6, 0xf7, 0x48, 0x3f, 0x1b, 0x01, 0x54, 0xe1, 0xdb, 0x37, 0x37, 0xe8,
  0x36, 0xee, 0xef, 0x13, 0x49, 0x36, 0x5b, 0xbb, 0xd4, 0xb4, 0x09, 0xd6,
  0x1e, 0x15, 0x42, 0x07, 0xf2, 0xd2, 0xe7, 0x5a, 0x66, 0xbe, 0xdf, 0x24,
  0x03, 0xf2, 0x0a, 0xc4, 0x03, 0x11, 0x13, 0x23, 0xe8, 0xf0, 0xe9, 0xe5,
  0x3e, 0x1e, 0xbf, 0xf6, 0xbc, 0x21, 0x67, 0x3a, 0xd1, 0xc8, 0xc9, 0x24,
  0xae, 0xed, 0xbf, 0xeb, 0x29, 0xdf, 0x1a, 0xd4, 0x0c, 0x01, 0x4b, 0xe3,
  0x46, 0xb8, 0xed, 0xdd, 0xbc, 0x19, 0xf7, 0xe6, 0x5c, 0xe5, 0xf4, 0xa8,
  0xce, 0x1f, 0x26, 0xd9, 0x21, 0xea, 0x1e, 0xe1, 0x1c, 0x98, 0x2d, 0x10,
  0x59, 0x0a, 0x22, 0xad, 0xd4, 0x1b, 0x58, 0x2a, 0xfa, 0x05, 0x43, 0x1f,
  0xe4, 0x10, 0xd4, 0x08, 0x51, 0xb8, 0xf4, 0x0e, 0x17, 0x0b, 0xb1, 0x0d,
  0x1d, 0x02, 0xf0, 0x09, 0xf0, 0x45, 0xc7, 0x47, 0x09, 0xd6, 0x22, 0x2e,
  0x26, 0xf8, 0xca, 0x3d, 0xf2, 0xc5, 0x48, 0xdf, 0x0f, 0x1d, 0x1e, 0x23,
  0x11, 0xd7, 0xc5, 0x24, 0xcb, 0xf2, 0xe2, 0xfa, 0x19, 0xbd, 0xf3, 0x1f,
  0x54, 0xba, 0x2b, 0x2d, 0x25, 0xd7, 0xdd, 0xe0, 0xb2, 0x37, 0x13, 0xd5,
  0xcb, 0x32, 0x2b, 0xb9, 0x34, 0xd1, 0x2c, 0xe1, 0xdd, 0x25, 0xd9, 0x3e,
  0xc1, 0x0c, 0x39, 0x4e, 0x25, 0x58, 0xc6, 0xbf, 0x1e, 0x43, 0xef, 0xcc,
  0xd0, 0x3f, 0x20, 0xd0, 0x30, 0x2a, 0x25, 0x64, 0xb0, 0xd7, 0x21, 0x06,
  0xee, 0x18, 0xcd, 0x50, 0xbe, 0xed, 0xda, 0xdf, 0x28, 0xcf, 0xd5, 0x30,
  0x23, 0x21, 0xdd, 0xef, 0xcc, 0x1e, 0xb2, 0x1a, 0x15, 0xd0, 0xc9, 0xe5,
  0x3e, 0xea, 0xdd, 0x4e, 0xb2, 0xf4, 0xd2, 0x3c, 0x3a, 0xbc, 0x41, 0x54,
  0x02, 0x26, 0xf0, 0xcc, 0xd3, 0xc9, 0x3a, 0xe9, 0xd4, 0xbd, 0x01, 0x40,
  0x21, 0xcd, 0x09, 0x13, 0x0b, 0xe6, 0xed, 0x0a, 0x1a, 0xda, 0x46, 0xf5,
  0x03, 0x30, 0x38, 0xcf, 0x2a, 0x32, 0xdb, 0x1a, 0xf5, 0xe2, 0xea, 0x1b,
  0xe8, 0x28, 0xd8, 0x41, 0xe1, 0xd2, 0x1c, 0xed, 0x55, 0x69, 0xe2, 0x10,
  0x47, 0xf2, 0xc6, 0x35, 0x06, 0x11, 0x30, 0xe8, 0x27, 0x45, 0x31, 0xd3,
  0x56, 0x23, 0xe9, 0x48, 0x1d, 0xb6, 0xcc, 0x4c, 0xce, 0xd2, 0xa7, 0x02,
  0x04, 0xf0, 0xb5, 0x33, 0x4a, 0x1f, 0xf1, 0x20, 0xd1, 0x1b, 0x24, 0x4d,
  0xcc, 0x19, 0xf1, 0x11, 0x10, 0x4a, 0xc3, 0x16, 0x1d, 0x10, 0x37, 0xda,
  0xca, 0xe0, 0x0e, 0x13, 0xc1, 0x40, 0xc8, 0xdc, 0xed, 0xd4, 0x2f, 0xcd,
  0xbd, 0xd9, 0x11, 0xe8, 0x15, 0x0f, 0xc7, 0xe4, 0xd3, 0x4d, 0x3e, 0x31,
  0xed, 0xcf, 0x20, 0xf8, 0xd6, 0x22, 0xd3, 0x23, 0xc4, 0xb0, 0xfa, 0xc6,
  0xda, 0x55, 0x0c, 0xf3, 0x1a, 0x43, 0xb7, 0x2e, 0x00, 0x02, 0x0e, 0xda,
  0x31, 0xf2, 0xe2, 0x21, 0xf0, 0x2d, 0xdf, 0x04, 0xad, 0xd8, 0x2f, 0xe3,
  0x0c, 0xf6, 0x15, 0x0c, 0xb6, 0x17, 0x18, 0xc1, 0x44, 0x3b, 0xbb, 0xc7,
  0xf1, 0x48, 0xdf, 0xd8, 0x31, 0x0e, 0xc3, 0x32, 0xeb, 0x1b, 0x19, 0xcb,
  0xe7, 0x39, 0x2b, 0xea, 0xed, 0xd3, 0xd8, 0x30, 0xe6, 0xfb, 0xcf, 0xf0,
  0x07, 0x31, 0x1f, 0x1d, 0x14, 0xfa, 0xeb, 0xec, 0x14, 0x46, 0xd7, 0x1f,
  0xf7, 0xbb, 0xf1, 0x03, 0x17, 0x37, 0x36, 0x17, 0x44, 0x18, 0x2d, 0xf3,
  0x23, 0x35, 0x11, 0xbd, 0xfa, 0x30, 0x9c, 0xe0, 0xca, 0x1e, 0x1a, 0x2a,
  0x0f, 0x50, 0xc4, 0xc4, 0x01, 0xce, 0x2b, 0x27, 0xdd, 0x4f, 0xf2, 0x1c,
  0xb2, 0x43, 0x2d, 0x45, 0xd7, 0x56, 0xeb, 0x1e, 0x1a, 0xf5, 0xed, 0x48,
  0x58, 0x23, 0x15, 0xd5, 0x00, 0xfc, 0xad, 0xfc, 0x11, 0x13, 0xd4, 0x1c,
  0xbb, 0xf2, 0xda, 0x2b, 0x44, 0xdf, 0xf7, 0x13, 0xac, 0x2f, 0xbf, 0xc2,
  0xfe, 0xc2, 0xe1, 0xc3, 0x0a, 0x41, 0x43, 0x1d, 0xf5, 0xde, 0x40, 0x13,
  0xce, 0x2d, 0xde, 0xe8, 0xef, 0x21, 0xe4, 0xec, 0x03, 0x03, 0x40, 0xf6,
  0xf8, 0xe4, 0xb3, 0x2e, 0x20, 0xdd, 0x3f, 0xc4, 0x35, 0x28, 0x19, 0x1d,
  0xc3, 0x2a, 0xf4, 0xf0, 0xb5, 0x1a, 0x2a, 0x48, 0xd6, 0xed, 0xe2, 0xde,
  0xd0, 0xe0, 0xcb, 0xf2, 0xb4, 0xcf, 0x47, 0x0b, 0x02, 0xb6, 0x14, 0xde,
  0xc5, 0x2e, 0x2c, 0x02, 0xbd, 0x00, 0x41, 0xca, 0xc5, 0xd1, 0xcf, 0xc6,
  0xe3, 0xe3, 0x21, 0x0f, 0xdc, 0xdc, 0x36, 0xc5, 0x1b, 0xfc, 0xcd, 0xb8,
  0xc5, 0xe7, 0xaf, 0xe3, 0xbe, 0xb8, 0x13, 0xa9, 0xb5, 0x16, 0xaf, 0x41,
  0xf1, 0xc9, 0xe0, 0xce, 0x40, 0xcc, 0xde, 0x3b, 0xe0, 0x44, 0x15, 0x06,
  0xb4, 0xd0, 0x33, 0x30, 0x0d, 0xba, 0xb5, 0xcd, 0xfb, 0xec, 0x06, 0x1a,
  0x21, 0xc0, 0xb5, 0x48, 0xc9, 0x1a, 0x19, 0x4a, 0xfa, 0xbc, 0xc9, 0xe3,
  0x15, 0xd4, 0x47, 0xea, 0xda, 0xd9, 0xd4, 0xf2, 0x17, 0xb6, 0xbb, 0xf1,
  0xca, 0xf1, 0x18, 0xf8, 0x06, 0x46, 0x14, 0x2f, 0x15, 0xcd, 0xb2, 0xee,
  0xac, 0x36, 0x2a, 0xf7, 0x03, 0x34, 0x48, 0x35, 0x2d, 0x2a, 0xfb, 0x05,
  0x01, 0x32, 0x25, 0x1c, 0xe9, 0xb7, 0xf8, 0x3b, 0xda, 0x0e, 0xed, 0x0d,
  0xe0, 0xdf, 0x07, 0xb1, 0x35, 0xb4, 0xd1, 0xe9, 0xe8, 0x4b, 0xb3, 0xb6,
  0xd0, 0x47, 0xb8, 0x01, 0x3f, 0xe2, 0x3c, 0xd9, 0xcc, 0x15, 0x1f, 0x36,
  0x3f, 0x06, 0x37, 0xc4, 0x17, 0x04, 0xbf, 0x25, 0xc1, 0xee, 0xb4, 0xf9,
  0xce, 0x2d, 0xe3, 0x1e, 0xf5, 0xca, 0xf0, 0xb2, 0x0d, 0x0a, 0x25, 0x0c,
  0xef, 0xf7, 0xad, 0xbb, 0xdb, 0xbe, 0xb7, 0x47, 0xce, 0xcd, 0xd8, 0xcc,
  0x32, 0x05, 0x1c, 0x42, 0xf5, 0xf5, 0xd3, 0x49, 0x0c, 0x2c, 0xfd, 0x19,
  0xfe, 0x04, 0x23, 0x2e, 0x3d, 0xd6, 0xbf, 0x21, 0xbf, 0x41, 0x13, 0x1a,
  0x28, 0x0e, 0xb8, 0x44, 0xce, 0xcd, 0xf3, 0xe7, 0xdf, 0x17, 0x32, 0xb4,
  0x21, 0xee, 0xca, 0x0e, 0x08, 0xc9, 0xf9, 0x46, 0xf4, 0x35, 0xf7, 0xf0,
  0xbc, 0xdf, 0x47, 0x30, 0xd5, 0x17, 0xf3, 0xe0, 0x05, 0xff, 0x36, 0x3c,
  0xf2, 0xf0, 0x27, 0x37, 0x3a, 0x3b, 0x2e, 0xbc, 0x1c, 0x01, 0x3f, 0xfb,
  0xfb, 0xc0, 0x27, 0x3d, 0xb9, 0x09, 0xd7, 0xee, 0x23, 0xf7, 0xc5, 0x43,
  0xe2, 0xbb, 0xd3, 0xe2, 0xf1, 0x1c, 0xb6, 0xcf, 0xf7, 0x19, 0xc9, 0xd1,
  0xf7, 0xbb, 0xdc, 0xb3, 0xee, 0x33, 0xad, 0xba, 0x20, 0xe2, 0xe1, 0xf0,
  0x32, 0x22, 0x12, 0x23, 0x20, 0x4a, 0xd3, 0x44, 0x40, 0x26, 0x3f, 0x01,
  0x07, 0xec, 0x1f, 0xfd, 0xb7, 0xd6, 0xd0, 0xb7, 0xce, 0xf1, 0xc9, 0x1f,
  0x08, 0xb0, 0x1a, 0xfa, 0x23, 0x41, 0xed, 0x3d, 0x42, 0x32, 0x0a, 0x0f,
  0x16, 0x47, 0x01, 0x3f, 0x2d, 0x05, 0xe9, 0x05, 0xfd, 0xc7, 0xed, 0xaf,
  0x3e, 0x1c, 0xe7, 0x4e, 0xf3, 0x10, 0x2a, 0x3d, 0xc2, 0x14, 0xec, 0x22,
  0x26, 0xeb, 0x47, 0xc4, 0x06, 0xff, 0x4f, 0xee, 0xe9, 0xd9, 0x39, 0x3f,
  0xe5, 0xcf, 0xec, 0xfe, 0x24, 0xbd, 0xf4, 0xed, 0x0e, 0x0a, 0x2f, 0x29,
  0xb5, 0xce, 0x2f, 0x2f, 0x43, 0x05, 0x2d, 0xdb, 0xb2, 0xf8, 0xce, 0xbf,
  0x26, 0xc9, 0xcf, 0xb4, 0xe0, 0x21, 0x4a, 0x05, 0xc4, 0xfe, 0xdb, 0xd2,
  0xe9, 0xe3, 0xef, 0xf1, 0x15, 0x23, 0x05, 0x27, 0xc6, 0x0e, 0xe7, 0x03,
  0x1e, 0x35, 0xb9, 0xc3, 0x08, 0x15, 0xe0, 0x16, 0xa8, 0xce, 0xb8, 0xd4,
  0x38, 0x40, 0xf5, 0xf0, 0x18, 0x47, 0x21, 0x14, 0x13, 0x2b, 0xe3, 0x20,
  0xfa, 0x34, 0xec, 0xd3, 0x38, 0x26, 0xf2, 0xf1, 0xfd, 0xcb, 0xe6, 0xfb,
  0xf1, 0xcb, 0x37, 0xfd, 0xcd, 0xd5, 0x1f, 0x25, 0x29, 0xc0, 0x2b, 0xfd,
  0x15, 0x43, 0x03, 0x1e, 0xbe, 0x02, 0xf8, 0x2c, 0x21, 0xbe, 0xc7, 0xb9,
  0xb5, 0xe6, 0xb8, 0x14, 0x33, 0x01, 0xac, 0x0b, 0x1c, 0xf3, 0x2d, 0xee,
  0x23, 0x3c, 0x02, 0xa8, 0xb6, 0xf0, 0x2f, 0xb5, 0x0a, 0x2a, 0xc3, 0xe8,
  0x19, 0x1b, 0xd6, 0xb0, 0xe4, 0x25, 0x08, 0xb8, 0xc1, 0x1b, 0x15, 0xe9,
  0x29, 0xb3, 0x1b, 0x18, 0x29, 0xb1, 0x9c, 0xf3, 0xe4, 0x1f, 0x21, 0xeb,
  0x41, 0x2f, 0xd2, 0xd7, 0x00, 0x1c, 0xed, 0xca, 0x02, 0x40, 0x41, 0x38,
  0x1c, 0xe1, 0xbf, 0xe0, 0x02, 0x35, 0xd3, 0x30, 0xef, 0xe3, 0x3c, 0xb5,
  0xeb, 0x19, 0xb2, 0xb6, 0xe7, 0x36, 0xba, 0xe8, 0x0a, 0x02, 0xec, 0x38,
  0x00, 0xdc, 0x49, 0xdf, 0xde, 0xec, 0x33, 0xbb, 0xdf, 0xb4, 0x20, 0xc5,
  0x37, 0x24, 0x39, 0xc4, 0xe2, 0x18, 0x0c, 0xf5, 0xfa, 0xb7, 0x26, 0xeb,
  0x2a, 0x0e, 0x16, 0xf4, 0xdc, 0x3d, 0xb2, 0xee, 0xd2, 0x1a, 0x0f, 0xcf,
  0x3b, 0x38, 0xe9, 0x28, 0xee, 0x25, 0xaf, 0xfe, 0xee, 0xe4, 0xd2, 0xd0,
  0x03, 0xc1, 0xe4, 0x2d, 0xcf, 0xe7, 0x36, 0xf6, 0xcc, 0x46, 0x49, 0x06,
  0xf4, 0xd0, 0x38, 0x2e, 0xc5, 0xd9, 0x0d, 0xad, 0xb8, 0xef, 0xb6, 0xec,
  0xb6, 0xd0, 0xbf, 0x31, 0xbc, 0xc0, 0xf7, 0x00, 0xfc, 0xe1, 0xb3, 0x05,
  0xde, 0x3f, 0x0e, 0x45, 0x0f, 0x4c, 0xb2, 0x37, 0x2e, 0xc5, 0xc8, 0xbf,
  0x3c, 0xea, 0xf0, 0xdd, 0xc0, 0x26, 0x10, 0xc9, 0xce, 0x3b, 0xf8, 0x11,
  0x34, 0xc9, 0x1a, 0x24, 0xc5, 0x0e, 0xd8, 0xe1, 0xd9, 0x23, 0xf6, 0x4a,
  0xf0, 0xf5, 0xb4, 0xcf, 0xd1, 0x35, 0x07, 0xe0, 0x22, 0x22, 0x06, 0x38,
  0xfd, 0xb4, 0xe4, 0xab, 0xc7, 0x43, 0xc0, 0xd1, 0x1e, 0xe9, 0x35, 0xc1,
  0xd7, 0xca, 0x3e, 0x17, 0xcc, 0x11, 0xdc, 0x1f, 0x3e, 0x3d, 0xd5, 0xfd,
  0x11, 0xe9, 0xc5, 0x27, 0xff, 0x41, 0x32, 0xb6, 0xb7, 0xd6, 0x2a, 0xc3,
  0x19, 0x45, 0xd8, 0xd2, 0xc8, 0x18, 0xf2, 0xc8, 0xe0, 0xe5, 0x64, 0x58,
  0x4a, 0x3f, 0x3c, 0xfa, 0x34, 0x3f, 0xde, 0xea, 0x02, 0xd0, 0x02, 0x31,
  0x1a, 0x29, 0xd6, 0x4c, 0xca, 0xf5, 0x4a, 0xd0, 0xf4, 0x3f, 0x30, 0x27,
  0x43, 0xf0, 0xc6, 0xe9, 0x0d, 0xb1, 0x1c, 0xfc, 0x3d, 0xbb, 0xee, 0x38,
  0x4a, 0x10, 0x33, 0xca, 0x20, 0xbd, 0xd7, 0x0d, 0x11, 0xba, 0x17, 0xfc,
  0x33, 0x00, 0x2f, 0x15, 0x3c, 0xb6, 0xf3, 0xe4, 0xe1, 0xe0, 0x45, 0x10,
  0xdc, 0x13, 0x39, 0x1f, 0xaa, 0x29, 0x46, 0xe1, 0xef, 0xf4, 0x0c, 0xc1,
  0xb1, 0x34, 0x38, 0xb4, 0xcc, 0xe7, 0xdd, 0x1e, 0xb6, 0xf2, 0x26, 0x4a,
  0xf3, 0xb8, 0x02, 0x27, 0xfc, 0xd2, 0x2a, 0xfa, 0xc8, 0xf0, 0x3c, 0x01,
  0xc5, 0xe9, 0x4e, 0x3a, 0x08, 0xec, 0xf5, 0xab, 0xcc, 0x3f, 0x16, 0x30,
  0xe4, 0x04, 0x23, 0x35, 0x11, 0xc9, 0xdc, 0x28, 0x0c, 0xd9, 0x30, 0x4e,
  0xfb, 0x17, 0x1f, 0x21, 0xcd, 0x34, 0x18, 0x01, 0xf6, 0xe4, 0xeb, 0xc4,
  0xf4, 0x07, 0xc8, 0x25, 0xfb, 0x24, 0x52, 0x39, 0x5e, 0xeb, 0xe5, 0xf3,
  0x28, 0xf7, 0x24, 0x15, 0x25, 0x02, 0x06, 0x40, 0xcf, 0xda, 0xec, 0x1d,
  0xef, 0x38, 0xf7, 0xec, 0x1e, 0xd5, 0xdf, 0x3f, 0x02, 0xfa, 0x62, 0x38,
  0xb3, 0x3a, 0x44, 0x46, 0xf5, 0xee, 0xdf, 0x29, 0xcd, 0x08, 0xcd, 0xb7,
  0xde, 0x20, 0x2d, 0xcf, 0xbf, 0x3c, 0xf8, 0x2c, 0xeb, 0x1c, 0x0f, 0xdb,
  0x05, 0xb3, 0x06, 0x17, 0xd5, 0xc3, 0xd4, 0xed, 0xa3, 0xc2, 0x1b, 0xc7,
  0x35, 0x3f, 0x1e, 0xc8, 0x2e, 0x04, 0xe9, 0x2b, 0xec, 0xcc, 0xb9, 0x06,
  0xb9, 0xf1, 0xc0, 0xcb, 0x4a, 0xa8, 0x23, 0xbd, 0x99, 0xd7, 0x27, 0x41,
  0xca, 0x2b, 0x5b, 0x12, 0x34, 0x3d, 0x00, 0x08, 0xfa, 0x06, 0xe9, 0x1a,
  0xd8, 0x3e, 0x0c, 0xd1, 0x69, 0x02, 0x2c, 0xb7, 0xbd, 0xaf, 0xfd, 0xc7,
  0x26, 0x3e, 0x05, 0xb6, 0x21, 0xf4, 0x23, 0x43, 0x25, 0x09, 0x44, 0x43,
  0x29, 0xc7, 0x3b, 0xda, 0x36, 0xac, 0x36, 0xf8, 0xbe, 0xa5, 0x27, 0x44,
  0xd8, 0x52, 0xfd, 0x34, 0xd4, 0xc4, 0xe4, 0xf1, 0x4f, 0xdd, 0x42, 0x02,
  0x17, 0xbe, 0xe1, 0xb4, 0x08, 0x49, 0xc4, 0x1e, 0x04, 0x1a, 0xe0, 0x42,
  0x2b, 0xe0, 0x2d, 0xbf, 0x15, 0x03, 0x4c, 0x3b, 0x0c, 0x11, 0x32, 0xea,
  0x0a, 0x1c, 0x25, 0x56, 0x3a, 0x1d, 0xd3, 0x00, 0xaf, 0x16, 0xe0, 0x3d,
  0x43, 0xfd, 0x2d, 0xe8, 0x11, 0x05, 0xcf, 0xc5, 0x0f, 0xab, 0x39, 0xd4,
  0x30, 0xd4, 0x46, 0xe4, 0x74, 0xde, 0x3e, 0xdc, 0x01, 0xcf, 0xc8, 0x18,
  0xfa, 0xe0, 0xdc, 0xd1, 0xe1, 0xb8, 0xf0, 0xf9, 0x4d, 0xb8, 0xed, 0x15,
  0xa4, 0x2c, 0x15, 0x22, 0x0c, 0xf2, 0x09, 0x0f, 0x15, 0x17, 0x43, 0xe9,
  0xf9, 0x37, 0x32, 0xe0, 0xd5, 0x06, 0xfa, 0xe9, 0xe8, 0x24, 0x3d, 0x18,
  0xf1, 0xf5, 0x0b, 0x31, 0x45, 0xe9, 0xe6, 0xcc, 0xea, 0xc6, 0xee, 0xea,
  0xcf, 0x50, 0x51, 0x0f, 0xf9, 0x01, 0xb9, 0x3f, 0xde, 0x1f, 0xf6, 0xf1,
  0x37, 0x15, 0xfc, 0xe5, 0x3d, 0xc7, 0xe7, 0x37, 0x00, 0xd6, 0x23, 0xd3,
  0xd3, 0xd4, 0xcf, 0xf1, 0x39, 0xbe, 0x04, 0xfb, 0x30, 0x50, 0xca, 0xbb,
  0xcd, 0x30, 0x52, 0xcc, 0xd9, 0x46, 0xc9, 0xc7, 0x22, 0x16, 0xf4, 0x43,
  0xf7, 0x3a, 0x35, 0xc5, 0xc0, 0x19, 0xde, 0xb7, 0xd1, 0x0d, 0xf5, 0x1b,
  0xc8, 0x11, 0x44, 0x2e, 0xca, 0xde, 0xe7, 0xd5, 0xdd, 0x47, 0x55, 0xc6,
  0xbd, 0x26, 0xf7, 0x14, 0xb8, 0xb6, 0x43, 0xc4, 0x1c, 0xe0, 0xe8, 0xe1,
  0xc5, 0xbf, 0x54, 0xfe, 0xea, 0xd7, 0xb9, 0xe5, 0xaa, 0x0f, 0xda, 0x17,
  0x4b, 0xca, 0xd5, 0x00, 0xf6, 0xfc, 0x0f, 0xdb, 0x41, 0x12, 0x55, 0x3e,
  0x3c, 0xdd, 0x3a, 0x22, 0x64, 0xc6, 0xbf, 0xcb, 0x20, 0xda, 0x0a, 0xde,
  0x7f, 0xac, 0xdf, 0xeb, 0xc3, 0x1b, 0xc0, 0x51, 0x21, 0xf3, 0x11, 0x37,
  0xe1, 0xcc, 0xe2, 0x20, 0x3b, 0xcf, 0x43, 0xb8, 0xc6, 0xe4, 0x48, 0x2b,
  0x44, 0xf7, 0xc8, 0xda, 0xef, 0xed, 0x31, 0xea, 0x21, 0xbb, 0x12, 0xe0,
  0x2f, 0xce, 0x1c, 0x39, 0x64, 0xd3, 0x53, 0x1e, 0x29, 0xc1, 0xed, 0xde,
  0x5e, 0xc0, 0x31, 0x08, 0x12, 0x25, 0x14, 0x46, 0xf6, 0x20, 0x05, 0xd5,
  0xde, 0xf1, 0x1b, 0x28, 0x57, 0xee, 0x3c, 0x63, 0xfd, 0xc5, 0xe5, 0x5e,
  0x33, 0xd6, 0x4b, 0xf5, 0x3a, 0xda, 0xe3, 0x40, 0x26, 0xbc, 0xd6, 0xe1,
  0xda, 0x06, 0xe9, 0x54, 0x6c, 0x2b, 0x3d, 0x27, 0x20, 0xfe, 0xfd, 0xf7,
  0x19, 0xc6, 0x42, 0xd0, 0xd4, 0x20, 0x4d, 0x29, 0xed, 0x26, 0x0d, 0xd1,
  0x05, 0x30, 0x02, 0x4b, 0x19, 0x21, 0xd9, 0xdd, 0xdb, 0xcd, 0xe4, 0xdc,
  0x3e, 0xc2, 0xf0, 0x3c, 0x3d, 0xcf, 0xfd, 0xc7, 0xcb, 0xb8, 0xd9, 0xd2,
  0xc3, 0xe8, 0x0a, 0x42, 0x51, 0x59, 0x24, 0xce, 0x14, 0x07, 0x2b, 0xbc,
  0xee, 0x4a, 0xd1, 0x39, 0x3b, 0xd2, 0x4a, 0x3b, 0x27, 0xaa, 0xd8, 0xd8,
  0xbb, 0xf1, 0x36, 0xdf, 0x4b, 0xfe, 0xdf, 0x01, 0x29, 0xb5, 0x52, 0xd9,
  0x6e, 0x0b, 0xd1, 0xf3, 0xca, 0xbd, 0xca, 0x2e, 0x2f, 0xd9, 0x04, 0x19,
  0x26, 0x1f, 0xca, 0xef, 0x43, 0x43, 0xb0, 0x33, 0x02, 0x33, 0xed, 0xfa,
  0xe8, 0xb2, 0x40, 0xb6, 0x3b, 0x39, 0x13, 0x3b, 0x2d, 0xab, 0x25, 0xbf,
  0xb7, 0xaf, 0x0a, 0xd2, 0x69, 0xc3, 0xf9, 0x47, 0x10, 0xc7, 0xe6, 0xf2,
  0xfd, 0xee, 0x20, 0x5c, 0x00, 0xc1, 0xc1, 0xf9, 0x43, 0x52, 0x47, 0xc9,
  0x3d, 0x1c, 0xc9, 0xfe, 0x5c, 0x38, 0x06, 0x05, 0xa7, 0x02, 0x37, 0xe8,
  0x17, 0xe5, 0x59, 0x2e, 0x40, 0x3d, 0x4c, 0xfc, 0x3a, 0xbb, 0x24, 0x07,
  0x14, 0x31, 0xf2, 0xaf, 0x3f, 0xd0, 0xd6, 0xbb, 0xd7, 0xd1, 0xbc, 0x15,
  0x25, 0x32, 0xd9, 0xf0, 0x0d, 0x48, 0x1f, 0xf3, 0x10, 0x27, 0xde, 0x46,
  0x25, 0xdf, 0x3c, 0xe4, 0xb2, 0xd1, 0xd8, 0xd2, 0xb5, 0xc1, 0xf9, 0x30,
  0xff, 0xd5, 0x17, 0xd7, 0x31, 0xdd, 0xd1, 0xb9, 0xf4, 0xc6, 0xc3, 0xe7,
  0xd6, 0xe3, 0xad, 0xdb, 0xce, 0x0b, 0xf8, 0x06, 0x07, 0xfb, 0xeb, 0xb1,
  0xb9, 0xc1, 0x38, 0x35, 0xc1, 0x41, 0x14, 0x30, 0xb6, 0x3e, 0x28, 0xf8,
  0x20, 0xc4, 0x0e, 0x3e, 0x2a, 0xee, 0xf2, 0x0a, 0x32, 0x37, 0xf7, 0xde,
  0xd0, 0x23, 0x27, 0xf6, 0xa6, 0xba, 0x2f, 0xfb, 0x2d, 0x29, 0xaf, 0x31,
  0xe4, 0xcc, 0xe2, 0x06, 0xbe, 0x37, 0x3c, 0x37, 0xb9, 0x49, 0xfc, 0x31,
  0x04, 0xf5, 0xe5, 0x3d, 0x35, 0x4e, 0xf1, 0xfb, 0x22, 0x13, 0xd0, 0xb8,
  0x22, 0xec, 0xc7, 0x06, 0xe8, 0x39, 0xca, 0xb8, 0xc0, 0x12, 0x3c, 0x2b,
  0xe3, 0xe4, 0x43, 0xef, 0x32, 0xcb, 0xe1, 0x15, 0x40, 0xd4, 0x3a, 0xb4,
  0x01, 0xd5, 0x34, 0x29, 0x06, 0x3a, 0xe7, 0x3c, 0xd6, 0x38, 0xda, 0x41,
  0x16, 0xe7, 0xd0, 0xc9, 0xba, 0x28, 0xcc, 0x30, 0xba, 0xdd, 0xfc, 0x0c,
  0x19, 0xd8, 0x45, 0x34, 0x33, 0xd8, 0xe9, 0xdc, 0x41, 0x20, 0x38, 0x30,
  0xd7, 0x47, 0x14, 0x12, 0xea, 0xb6, 0xed, 0xf5, 0x19, 0x22, 0xed, 0xc2,
  0x0c, 0x0c, 0x25, 0x28, 0x14, 0xf1, 0xbc, 0x13, 0x13, 0xc6, 0x0c, 0xda,
  0xd8, 0xe0, 0xbf, 0x1e, 0xd0, 0xed, 0x2e, 0xbb, 0x2c, 0x35, 0x00, 0x45,
  0xde, 0xf8, 0xc8, 0xf8, 0xb2, 0x18, 0xf3, 0x36, 0x2c, 0x3f, 0x37, 0x32,
  0xfe, 0xd3, 0x15, 0xf7, 0x43, 0x0b, 0x24, 0xd2, 0x33, 0x24, 0xc5, 0xf3,
  0xb5, 0x45, 0x00, 0xfa, 0xaf, 0xb0, 0x26, 0x1f, 0xc0, 0x32, 0x32, 0xf3,
  0xb4, 0xfe, 0xf0, 0xb3, 0xe7, 0xac, 0x32, 0xeb, 0x15, 0x2d, 0x11, 0x13,
  0x0b, 0x23, 0x05, 0xc1, 0xeb, 0xb6, 0xb4, 0xd9, 0x22, 0xef, 0xae, 0xb4,
  0x24, 0xeb, 0xb6, 0xfe, 0x2b, 0x4b, 0x3e, 0x40, 0xe1, 0x2f, 0x0a, 0xf5,
  0xbc, 0x24, 0xdc, 0x3c, 0xb8, 0xe3, 0x01, 0x1f, 0x38, 0x43, 0xe4, 0xc5,
  0xc4, 0x1b, 0x29, 0x09, 0xc1, 0xc8, 0xb7, 0xb3, 0x3f, 0xb8, 0xc5, 0xe4,
  0x2f, 0x1c, 0x39, 0xb1, 0xc8, 0x29, 0x19, 0x30, 0x0f, 0x3c, 0xbc, 0xb7,
  0x16, 0x13, 0x43, 0xb9, 0xc4, 0xd4, 0xfb, 0x0b, 0x2f, 0x22, 0x00, 0xb4,
  0x15, 0xf1, 0x3f, 0xfe, 0xe3, 0x0d, 0xf9, 0x02, 0xf5, 0x28, 0xe7, 0xd1,
  0x16, 0xd7, 0xb9, 0xee, 0x2b, 0xea, 0xd3, 0x21, 0x34, 0xfe, 0x05, 0x31,
  0x10, 0xd4, 0xe0, 0x33, 0x1a, 0x2c, 0xfe, 0xd2, 0x16, 0xe4, 0xb3, 0x3f,
  0x16, 0xd6, 0xf0, 0xd2, 0xc9, 0xc1, 0xe9, 0x38, 0x2c, 0xcc, 0xb4, 0x01,
  0xf4, 0xc5, 0xdf, 0x14, 0x1f, 0x30, 0x0f, 0x0c, 0xe7, 0x03, 0x2e, 0xe5,
  0x31, 0xc6, 0x3a, 0xbb, 0x31, 0x49, 0xc4, 0xe3, 0x52, 0x14, 0xdd, 0xbe,
  0x1d, 0x30, 0xe6, 0x37, 0xea, 0xf8, 0xde, 0xd9, 0x0d, 0xc9, 0x18, 0x16,
  0x17, 0xd7, 0xe2, 0x2e, 0x2e, 0x26, 0x28, 0xe0, 0xfb, 0xfa, 0xd5, 0xf6,
  0xff, 0xd0, 0xd7, 0x01, 0xdf, 0x48, 0xf3, 0x26, 0xeb, 0xdc, 0xec, 0x15,
  0xc9, 0x00, 0xc6, 0x31, 0xb0, 0x3e, 0xc6, 0x2a, 0xb9, 0x42, 0xc7, 0xbc,
  0x2b, 0x40, 0xe9, 0x31, 0x18, 0xbe, 0xd9, 0x19, 0xb4, 0xe7, 0xde, 0xe8,
  0x25, 0x3c, 0xde, 0xc5, 0x19, 0xd8, 0xd9, 0xc1, 0x47, 0x17, 0xf2, 0xbf,
  0xce, 0xbe, 0xb7, 0x04, 0xfe, 0xbd, 0x1f, 0xc3, 0xed, 0x01, 0x35, 0x0c,
  0xbf, 0xdb, 0x4a, 0xb9, 0xc5, 0xd5, 0x1d, 0xe0, 0xc7, 0x43, 0xfe, 0xf3,
  0xc9, 0x01, 0xf1, 0x32, 0xb8, 0xee, 0x40, 0x34, 0x01, 0x3d, 0x48, 0x3b,
  0x3d, 0xb2, 0x0a, 0x1c, 0xa0, 0xc0, 0x14, 0x2f, 0xce, 0x30, 0xd1, 0xbe,
  0xcb, 0xc7, 0x2d, 0x37, 0x4f, 0xb5, 0x14, 0x04, 0x30, 0x39, 0x52, 0x1a,
  0x16, 0xe8, 0x18, 0xe0, 0xae, 0xec, 0xca, 0x27, 0x2b, 0x3e, 0xc5, 0xd8,
  0x0b, 0xb0, 0x18, 0x36, 0xe9, 0xff, 0xea, 0xda, 0xd2, 0x32, 0x05, 0xab,
  0x01, 0xc1, 0x34, 0xab, 0x10, 0xcd, 0x2d, 0x31, 0xfe, 0x03, 0x30, 0xac,
  0x35, 0xd7, 0x30, 0xc2, 0xc0, 0x06, 0xc6, 0xdb, 0x16, 0xf1, 0x34, 0x29,
  0x57, 0x3d, 0x45, 0xcf, 0x00, 0x3c, 0x24, 0x52, 0xf2, 0xb0, 0x46, 0xbf,
  0xf9, 0x26, 0x05, 0x4b, 0x50, 0xe6, 0xef, 0x32, 0x34, 0xd5, 0x1f, 0xf8,
  0x50, 0x12, 0x44, 0xe7, 0x07, 0xcd, 0xcf, 0x47, 0x1d, 0x1c, 0x46, 0xe8,
  0xa2, 0x3a, 0x16, 0xb0, 0xf8, 0x41, 0xd3, 0x0f, 0x2e, 0xe0, 0xc3, 0xe2,
  0x0c, 0x30, 0x36, 0x23, 0xec, 0xff, 0x13, 0xd4, 0x28, 0xfc, 0xda, 0xc1,
  0x28, 0xfa, 0xbd, 0x20, 0x4a, 0x13, 0x22, 0x19, 0x30, 0x41, 0x30, 0x17,
  0x22, 0x3e, 0x17, 0x3d, 0x14, 0xdb, 0xc9, 0x43, 0x49, 0x24, 0x2a, 0x43,
  0xef, 0x05, 0xc7, 0x07, 0xdf, 0x3f, 0xd5, 0xb1, 0xaa, 0x3d, 0xe9, 0x39,
  0x2b, 0xd2, 0xba, 0xba, 0xd4, 0xd5, 0x20, 0x04, 0x29, 0xba, 0xf8, 0x34,
  0x02, 0xe6, 0x48, 0x4d, 0xc3, 0xb7, 0x3d, 0x35, 0x36, 0x3c, 0x45, 0xdb,
  0xd4, 0x03, 0x21, 0xbd, 0xb5, 0x02, 0xb7, 0x22, 0x37, 0x20, 0x0f, 0xfc,
  0xac, 0xde, 0x32, 0xeb, 0x03, 0x13, 0x2e, 0xf0, 0xf3, 0x11, 0xe8, 0xd9,
  0x04, 0x35, 0x3e, 0xcb, 0xeb, 0xe0, 0xbd, 0xf8, 0x56, 0x1a, 0xce, 0x1b,
  0xcd, 0xd3, 0x04, 0x13, 0xf1, 0xaa, 0x27, 0x2b, 0xfb, 0xee, 0xb9, 0xd3,
  0xbe, 0xec, 0xe4, 0xdb, 0x07, 0x36, 0x34, 0x3a, 0x30, 0xaf, 0x41, 0x0c,
  0x37, 0x2b, 0x09, 0x4a, 0xdd, 0xe0, 0xea, 0xe8, 0x0d, 0x04, 0x15, 0x26,
  0x33, 0x41, 0xcb, 0x1b, 0x10, 0xc2, 0x1a, 0x26, 0x4a, 0x18, 0x06, 0xd8,
  0x20, 0xc1, 0x18, 0x14, 0x1b, 0x45, 0xb7, 0xbd, 0x36, 0x0f, 0x25, 0xb9,
  0xeb, 0xc2, 0xe4, 0xfa, 0xfb, 0xee, 0xbd, 0xec, 0x1f, 0xc8, 0x0b, 0x17,
  0xcd, 0x23, 0x4d, 0x39, 0x2b, 0xe5, 0xc4, 0xec, 0x0f, 0xe8, 0x2a, 0xe4,
  0x2c, 0xca, 0xeb, 0x3c, 0x30, 0xb8, 0xe8, 0xd4, 0xbe, 0x24, 0xed, 0xfe,
  0xd0, 0xf0, 0xf4, 0x18, 0xc1, 0x3a, 0xc6, 0xe0, 0x00, 0x44, 0xeb, 0xd8,
  0xb4, 0x0d, 0xe2, 0xe2, 0xe1, 0xf4, 0x4a, 0x3d, 0xbc, 0xf5, 0x31, 0x37,
  0xfe, 0x07, 0x04, 0xee, 0x0c, 0xc2, 0xca, 0x05, 0xb9, 0x20, 0xfa, 0xfd,
  0xfc, 0xfe, 0x48, 0xb7, 0xbd, 0x39, 0xe1, 0x3b, 0x10, 0xd0, 0x26, 0xe4,
  0xab, 0xb9, 0x4a, 0xd3, 0xbd, 0x0a, 0xd9, 0xce, 0xd4, 0xca, 0x4b, 0x3c,
  0x01, 0x02, 0x0b, 0xb4, 0xcc, 0x2d, 0xe3, 0xdd, 0xe5, 0x23, 0xae, 0x4a,
  0x18, 0xe9, 0xca, 0x00, 0x03, 0x07, 0xbd, 0x3a, 0xb3, 0x1e, 0x31, 0x12,
  0x28, 0x1d, 0x3f, 0x41, 0x28, 0x2f, 0xbb, 0xb6, 0x05, 0x0a, 0xfd, 0xbf,
  0x48, 0xc5, 0xc0, 0x00, 0x3f, 0x1d, 0xc1, 0x19, 0xbd, 0xbc, 0xb1, 0xd9,
  0xcc, 0x43, 0xc6, 0xf1, 0x08, 0x28, 0xcd, 0xe7, 0xb1, 0xe8, 0x49, 0xbd,
  0xc8, 0xde, 0x32, 0xdc, 0xb8, 0x16, 0xc0, 0x1a, 0x3f, 0xcd, 0x30, 0x0c,
  0xd6, 0x07, 0xc8, 0x1b, 0xc8, 0xbc, 0x1a, 0x41, 0xe2, 0xfc, 0x44, 0x14,
  0xec, 0xe4, 0xac, 0xda, 0xda, 0x30, 0xd2, 0x3b, 0xc5, 0x14, 0x02, 0x0d,
  0xd3, 0x2f, 0x4d, 0xf8, 0xc1, 0xca, 0xd5, 0x13, 0x06, 0xc8, 0xc8, 0xde,
  0xed, 0xef, 0x1e, 0xfc, 0xe4, 0xcd, 0x0f, 0x28, 0x15, 0xee, 0xf5, 0xd4,
  0xfe, 0x2c, 0x0f, 0x42, 0xf3, 0x20, 0xc4, 0xce, 0x07, 0x02, 0x30, 0x33,
  0xee, 0xc5, 0x32, 0xbd, 0x07, 0x05, 0xf7, 0xe7, 0xf9, 0xde, 0xc6, 0xc4,
  0x2c, 0x15, 0xbe, 0xf8, 0xba, 0x3d, 0xcb, 0xde, 0xcf, 0x13, 0x20, 0xbd,
  0x36, 0xda, 0xc9, 0xd2, 0x0c, 0x04, 0x1e, 0x41, 0x15, 0xe0, 0xd1, 0xea,
  0x19, 0xd5, 0xff, 0xba, 0x14, 0xe8, 0x1c, 0xc2, 0x02, 0xb2, 0x02, 0x13,
  0x54, 0x45, 0xb9, 0x47, 0x03, 0xbe, 0xcd, 0x31, 0x1e, 0x30, 0xec, 0x10,
  0x11, 0xe7, 0xf1, 0x28, 0x1e, 0xe1, 0xdf, 0xb1, 0x43, 0x03, 0xef, 0xfe,
  0x2f, 0x38, 0xac, 0x30, 0x33, 0xbe, 0x16, 0x06, 0x2a, 0xfa, 0x45, 0xb0,
  0xbd, 0xc1, 0xdb, 0xff, 0x33, 0xc3, 0xe1, 0xb4, 0x16, 0x03, 0xe5, 0x06,
  0xc9, 0xd5, 0x19, 0xe2, 0x12, 0xf7, 0xce, 0x07, 0xfb, 0xf0, 0x49, 0xf2,
  0xce, 0xb9, 0xbe, 0xd0, 0x15, 0x10, 0x33, 0x1a, 0x23, 0xfb, 0x20, 0x18,
  0x1c, 0x3d, 0xcd, 0x4b, 0x24, 0x44, 0x34, 0xb6, 0x2b, 0x1b, 0x2d, 0x11,
  0xb9, 0x37, 0xe7, 0x48, 0xbb, 0x05, 0x31, 0x01, 0xd5, 0x46, 0x48, 0x0b,
  0xc9, 0xe5, 0x3d, 0xcb, 0xbc, 0x1c, 0xfa, 0x3c, 0x0a, 0xec, 0x48, 0xbd,
  0x07, 0x04, 0x07, 0xc8, 0x28, 0x39, 0x1d, 0x1c, 0xae, 0xf4, 0x22, 0x07,
  0x15, 0xb3, 0x4c, 0xc2, 0x1d, 0x48, 0xda, 0x40, 0xdc, 0x2e, 0xc4, 0xd0,
  0x39, 0xf6, 0x07, 0x3a, 0x0a, 0x10, 0xeb, 0xc1, 0x2a, 0xfa, 0xcb, 0xfb,
  0xba, 0xbd, 0x33, 0xd4, 0xb5, 0x26, 0xba, 0x16, 0xdc, 0x42, 0xb2, 0xf0,
  0x43, 0xfc, 0xdf, 0xda, 0xc3, 0xd4, 0x29, 0x01, 0xd2, 0x22, 0xbd, 0x19,
  0x43, 0xdb, 0xbe, 0x18, 0x21, 0xf3, 0x3a, 0x1f, 0xb4, 0x49, 0x0f, 0xd6,
  0x47, 0x45, 0x12, 0x01, 0xc1, 0xf5, 0x3b, 0xb4, 0xc4, 0xc9, 0xe0, 0xcd,
  0xec, 0x47, 0x4e, 0xd3, 0x3b, 0xda, 0x37, 0xd8, 0x02, 0xbe, 0xb7, 0x28,
  0x1e, 0xcd, 0xf6, 0xca, 0xae, 0xd2, 0x11, 0x1a, 0xf5, 0x23, 0xd7, 0xc0,
  0xf3, 0xf1, 0xe2, 0x49, 0x24, 0x23, 0xe8, 0xe1, 0x06, 0xd4, 0xeb, 0xef,
  0x1d, 0x3e, 0x2c, 0xd4, 0xb8, 0x40, 0xfd, 0xb8, 0x2f, 0x14, 0x14, 0x3a,
  0xff, 0xdc, 0x2e, 0xe6, 0xe2, 0xb2, 0xf0, 0xfe, 0x09, 0xb1, 0x12, 0x27,
  0xec, 0x44, 0x16, 0xbc, 0x40, 0x20, 0xea, 0xf3, 0xff, 0x17, 0x30, 0xbc,
  0xfa, 0xdf, 0xd2, 0x3d, 0x58, 0xff, 0xde, 0xc7, 0xae, 0xf1, 0xcf, 0x51,
  0x6c, 0x46, 0x29, 0x20, 0x4d, 0xae, 0x1d, 0xe1, 0x3c, 0xf1, 0x25, 0xc5,
  0x1c, 0x3f, 0x4f, 0xcf, 0xde, 0xd5, 0xd3, 0xa6, 0x05, 0x37, 0xb9, 0x17,
  0x5d, 0x12, 0x24, 0x33, 0xba, 0x1b, 0xec, 0x18, 0xeb, 0x3f, 0xc8, 0x0e,
  0x14, 0xcf, 0x26, 0x13, 0x17, 0xb3, 0xeb, 0x0d, 0xbd, 0x0b, 0x3c, 0xd2,
  0xe5, 0xbf, 0x05, 0xc9, 0x15, 0xf6, 0x08, 0x48, 0x22, 0xdf, 0x5d, 0xe7,
  0xcd, 0x01, 0x07, 0xdd, 0xf5, 0xf9, 0xde, 0x40, 0x10, 0x44, 0xdf, 0x40,
  0x4b, 0xd0, 0x1d, 0xf6, 0xbe, 0xba, 0xc4, 0xd4, 0x1d, 0x18, 0xfe, 0x36,
  0xb4, 0xc2, 0x4d, 0xce, 0x2f, 0x08, 0x19, 0xfe, 0x05, 0x05, 0xf5, 0xcf,
  0x3c, 0xee, 0xdc, 0x2e, 0x0c, 0xf3, 0xf0, 0xfb, 0x4b, 0x31, 0x0c, 0xf9,
  0xd4, 0xab, 0x08, 0xef, 0x77, 0xce, 0x37, 0x08, 0x31, 0xca, 0xf5, 0xdf,
  0x07, 0xc8, 0xff, 0xdc, 0xde, 0x16, 0x3e, 0x33, 0xfd, 0x30, 0x39, 0xe9,
  0x0c, 0xe0, 0x02, 0xdc, 0x0a, 0xb0, 0x02, 0xb9, 0xec, 0xd5, 0x5e, 0x11,
  0xe8, 0xfd, 0x35, 0xc1, 0x04, 0xc0, 0x3d, 0x2a, 0x3a, 0x29, 0x1e, 0x34,
  0x13, 0xd3, 0x06, 0xfa, 0xf2, 0xbf, 0x51, 0xe2, 0x23, 0xb7, 0x26, 0xc6,
  0x22, 0x21, 0x1f, 0x3a, 0xf7, 0xe6, 0xc6, 0x30, 0xed, 0x06, 0xda, 0x20,
  0x04, 0xb3, 0x00, 0xe0, 0x17, 0xe3, 0xd3, 0xfe, 0x3f, 0xef, 0xf2, 0xdc,
  0xc2, 0x1b, 0x15, 0x00, 0x26, 0x48, 0x4e, 0x21, 0x5d, 0xb6, 0x4f, 0xed,
  0xc6, 0xd3, 0xcd, 0xf5, 0x46, 0x2f, 0x31, 0xf4, 0x01, 0xd1, 0x04, 0xd4,
  0xb5, 0xd0, 0x0a, 0xfe, 0xea, 0xbb, 0xe2, 0xb8, 0x3b, 0xe9, 0x24, 0xf4,
  0x07, 0xed, 0x25, 0x2c, 0xaf, 0x3b, 0xf7, 0xd2, 0x30, 0x49, 0x16, 0xc8,
  0xd1, 0xc0, 0xff, 0x26, 0x3f, 0xd6, 0x08, 0xeb, 0xf9, 0xfb, 0x34, 0x38,
  0x28, 0x1f, 0x2b, 0x20, 0xe6, 0x13, 0x27, 0x32, 0xe9, 0x39, 0x15, 0xc6,
  0xd7, 0xe6, 0x26, 0x07, 0xe6, 0xe0, 0x2f, 0xcc, 0x41, 0x2a, 0xf8, 0xd0,
  0x12, 0x42, 0xf9, 0x4c, 0xb1, 0xe9, 0xd8, 0x33, 0x47, 0xed, 0xf3, 0xe5,
  0xf8, 0x44, 0xb2, 0x0c, 0x1c, 0x3a, 0xf1, 0xe8, 0x29, 0x35, 0xd0, 0xe2,
  0xa9, 0x00, 0x00, 0xb6, 0xf8, 0xfd, 0xc0, 0x08, 0xf8, 0x40, 0xfb, 0xbc,
  0x36, 0x13, 0x27, 0x01, 0xb2, 0xd7, 0xff, 0x04, 0xff, 0x38, 0x26, 0xe4,
  0x00, 0x43, 0xe7, 0xdd, 0xd1, 0xc8, 0xe5, 0xb4, 0x0e, 0x0c, 0x09, 0x2a,
  0x03, 0x16, 0xe2, 0x1d, 0xb1, 0x14, 0x33, 0x01, 0xde, 0xac, 0xdf, 0xfa,
  0xf0, 0x0a, 0xf2, 0x3b, 0x00, 0xfb, 0x0a, 0xbb, 0xb6, 0xcb, 0x38, 0xb2,
  0xe9, 0x46, 0x00, 0xd2, 0xb1, 0xf6, 0x4c, 0xac, 0xcb, 0xdb, 0x1e, 0xc5,
  0x05, 0xc3, 0xfc, 0xe5, 0x27, 0xf2, 0x2e, 0x47, 0xc8, 0xb6, 0x1c, 0xb1,
  0x15, 0xaf, 0x3b, 0xc6, 0xf8, 0x3d, 0xfc, 0xab, 0x4c, 0x22, 0xd1, 0x26,
  0xff, 0xcd, 0xee, 0x3c, 0x23, 0x31, 0x08, 0xc0, 0xc4, 0x2a, 0xc3, 0xb5,
  0xc2, 0x3d, 0xbc, 0xf4, 0xd7, 0x17, 0x19, 0xcd, 0x41, 0xef, 0xe0, 0xf2,
  0x43, 0x08, 0xe8, 0x22, 0xad, 0x3f, 0xd7, 0xda, 0xbc, 0x35, 0x42, 0xe5,
  0x20, 0x24, 0xbd, 0x42, 0xfc, 0xd6, 0x01, 0xc4, 0xb1, 0x1c, 0xc5, 0xbe,
  0x2c, 0x3e, 0x37, 0xf2, 0x47, 0x3c, 0x39, 0xc0, 0x14, 0x10, 0xc9, 0xed,
  0xc7, 0x09, 0xff, 0x24, 0x25, 0xbc, 0x47, 0xf2, 0xe1, 0xea, 0x2b, 0x36,
  0x0d, 0xd4, 0x13, 0x30, 0x1f, 0xf2, 0x24, 0xc7, 0x03, 0xe0, 0xb7, 0x43,
  0xd8, 0xe1, 0xe0, 0xad, 0xc8, 0x27, 0xf5, 0xb4, 0x3a, 0xd8, 0x3d, 0xe7,
  0x1d, 0xc9, 0x36, 0xdb, 0x0e, 0x35, 0xe3, 0xaf, 0x14, 0xdd, 0xee, 0xee,
  0x15, 0xd3, 0x40, 0x2c, 0xef, 0xd3, 0xf8, 0x11, 0xdc, 0xde, 0xd0, 0xd4,
  0x41, 0x0a, 0xcd, 0x33, 0xba, 0xde, 0xb6, 0xf5, 0xd4, 0xf6, 0xbd, 0xdc,
  0xff, 0xee, 0x02, 0x00, 0x1f, 0xa8, 0x33, 0x0f, 0x53, 0xb2, 0x0a, 0xeb,
  0x08, 0x0d, 0x3a, 0x47, 0x12, 0xd8, 0xdf, 0xc2, 0x3e, 0x2d, 0x1a, 0xce,
  0xa9, 0x39, 0xe2, 0xce, 0xfd, 0x2a, 0x19, 0x12, 0xd2, 0xb8, 0x2e, 0x17,
  0x2a, 0xcb, 0x40, 0x4a, 0xe0, 0xe7, 0xc2, 0x42, 0x35, 0xb8, 0x35, 0x26,
  0xb2, 0x42, 0x1c, 0x3b, 0xce, 0x40, 0x30, 0xd5, 0xc1, 0xf2, 0x1f, 0xa5,
  0xf2, 0x0c, 0xf6, 0xf3, 0x3d, 0xb3, 0x35, 0xe8, 0xaf, 0xf9, 0x00, 0x3f,
  0x40, 0xef, 0x03, 0xd8, 0x34, 0x1e, 0xf8, 0xdd, 0xb3, 0xca, 0x01, 0x16,
  0xc7, 0x1a, 0xd6, 0x00, 0xfc, 0xde, 0xfc, 0x18, 0xed, 0xf0, 0xd3, 0x12,
  0xe6, 0x3c, 0x21, 0xe5, 0x1b, 0xef, 0x00, 0x12, 0x11, 0xfa, 0x49, 0x4a,
  0x01, 0x22, 0xd9, 0xd1, 0xe8, 0xd3, 0xde, 0x27, 0xc2, 0x44, 0xcf, 0xe2,
  0x38, 0xee, 0xf8, 0xc2, 0xc0, 0xea, 0xf1, 0x47, 0x17, 0x2d, 0xd4, 0x10,
  0x15, 0x19, 0xcb, 0xc5, 0xfb, 0xf6, 0x06, 0xd7, 0x35, 0x4d, 0x08, 0x3b,
  0xc8, 0x31, 0x27, 0x26, 0xd8, 0x17, 0xbc, 0xf0, 0xde, 0x28, 0x13, 0x18,
  0x0a, 0x13, 0x2b, 0x26, 0xb7, 0xf9, 0x9f, 0x3d, 0xf5, 0x31, 0xcf, 0x55,
  0x10, 0x2d, 0xe1, 0x1c, 0xce, 0xda, 0xc2, 0x52, 0xe0, 0x3f, 0xb5, 0x0c,
  0xb6, 0xfc, 0x33, 0x0d, 0xf0, 0xd2, 0x4d, 0x03, 0x45, 0xde, 0xea, 0x10,
  0xcf, 0xc4, 0xee, 0xc1, 0xc6, 0x43, 0xbc, 0xd1, 0xf0, 0x06, 0x43, 0x37,
  0xec, 0xd0, 0xcd, 0xe0, 0xe2, 0xd0, 0x0f, 0xcc, 0xfd, 0x40, 0xca, 0xcd,
  0x0f, 0x3b, 0xc1, 0x1c, 0xc8, 0xe3, 0xec, 0x2b, 0x4f, 0x4a, 0xef, 0x3b,
  0xd5, 0x22, 0xc7, 0xd7, 0xc1, 0x1a, 0xd4, 0x1c, 0x2e, 0x31, 0x1f, 0xe0,
  0xea, 0x41, 0x41, 0xe2, 0x45, 0x61, 0xd8, 0xf2, 0xfc, 0xd1, 0xc0, 0xb6,
  0x11, 0xf7, 0xd3, 0xf7, 0xbd, 0x2d, 0xc9, 0x23, 0xda, 0x31, 0x02, 0xd7,
  0x3d, 0xed, 0xee, 0xf2, 0x1e, 0x13, 0xc8, 0xbf, 0xe2, 0x28, 0x0e, 0xf6,
  0x37, 0xfe, 0x1b, 0x1e, 0xdf, 0x33, 0x25, 0x29, 0xdc, 0xd6, 0xd1, 0x2d,
  0xc9, 0x0a, 0xbf, 0x36, 0x05, 0xc2, 0xff, 0xdf, 0xde, 0x1c, 0xce, 0x28,
  0x22, 0x1e, 0x03, 0xcb, 0x2a, 0xde, 0xbf, 0xe1, 0xf3, 0xc7, 0x10, 0x3f,
  0xed, 0xe5, 0x35, 0x24, 0xbb, 0x40, 0xde, 0xcf, 0xda, 0x51, 0xe4, 0xd0,
  0x3e, 0x24, 0xc3, 0xb8, 0x31, 0xe6, 0xaf, 0x33, 0x0f, 0xca, 0x0a, 0xc5,
  0xda, 0xf2, 0x23, 0x4e, 0x41, 0xf3, 0xf8, 0xed, 0x29, 0x05, 0xc7, 0x4a,
  0xb1, 0xd6, 0xf2, 0x42, 0xcd, 0xbd, 0x1b, 0xcf, 0x1d, 0xdb, 0x46, 0x13,
  0xe5, 0x26, 0xd2, 0x37, 0x5e, 0x0c, 0xf1, 0x0f, 0xfb, 0x26, 0xbd, 0xc7,
  0xc1, 0xb6, 0xbb, 0x07, 0xdf, 0x0d, 0x29, 0xdd, 0xfa, 0xbe, 0xe5, 0xcb,
  0x36, 0xf8, 0x01, 0xf5, 0x31, 0x4d, 0xd5, 0xda, 0xca, 0xf7, 0xbb, 0xe8,
  0x0f, 0x21, 0x40, 0xca, 0x4c, 0xce, 0xda, 0x36, 0x3a, 0xda, 0xc5, 0x28,
  0x05, 0x27, 0xd9, 0xc3, 0x4b, 0x17, 0xe1, 0x03, 0xee, 0xde, 0x2f, 0xec,
  0x74, 0xbf, 0xdd, 0x2f, 0x2d, 0x2c, 0xc4, 0x31, 0x43, 0x1e, 0xd6, 0xe4,
  0xfb, 0xfb, 0x39, 0x20, 0x31, 0x34, 0x45, 0xb3, 0x51, 0xbf, 0x45, 0xf7,
  0x09, 0xf6, 0x03, 0x42, 0xf4, 0xd8, 0x02, 0xaf, 0x10, 0x39, 0x3e, 0x37,
  0x0c, 0xf2, 0xdc, 0x13, 0x50, 0x46, 0xf2, 0x1c, 0xc9, 0x12, 0xd4, 0xd3,
  0x1e, 0x50, 0xab, 0x02, 0x2a, 0xfe, 0xeb, 0xce, 0xef, 0x10, 0xd5, 0x1d,
  0x34, 0x02, 0xf4, 0x04, 0x58, 0xd5, 0x51, 0x19, 0xbd, 0xb9, 0x22, 0x2f,
  0x3e, 0xd0, 0x31, 0x43, 0x03, 0xc7, 0xdb, 0xed, 0x19, 0x3e, 0x00, 0x1a,
  0xcb, 0xba, 0xcd, 0xb7, 0x05, 0x2f, 0xf7, 0xc7, 0xa5, 0xcd, 0x47, 0xd3,
  0xdb, 0xb2, 0x4f, 0xf2, 0xe9, 0x36, 0xf9, 0x1e, 0xc9, 0x21, 0xf3, 0xbd,
  0x12, 0xd1, 0xd9, 0x17, 0x01, 0xda, 0x34, 0xe0, 0xfe, 0xc1, 0x3e, 0x45,
  0xee, 0xb5, 0x34, 0xd4, 0x2d, 0x42, 0x20, 0xd6, 0x33, 0x2b, 0x0f, 0xe9,
  0x0f, 0x08, 0x07, 0x47, 0x0d, 0x00, 0xcf, 0x18, 0xa8, 0xe7, 0xc0, 0xd1,
  0xe7, 0xdb, 0xe5, 0xe0, 0x0d, 0xbd, 0xd1, 0x1a, 0x4a, 0x4b, 0xcb, 0x49,
  0x21, 0xfb, 0xad, 0x0a, 0x2f, 0x01, 0x04, 0xb3, 0xe7, 0xb3, 0x1f, 0xc7,
  0xd5, 0x25, 0xf4, 0x37, 0xf2, 0xce, 0xcc, 0x07, 0xeb, 0x45, 0xd8, 0xef,
  0xf9, 0x01, 0xc7, 0x13, 0x04, 0xd6, 0x34, 0x12, 0xac, 0x44, 0xd5, 0x05,
  0x4f, 0x4f, 0xe6, 0xd8, 0xd2, 0xcc, 0x13, 0xc5, 0x5b, 0x30, 0x2e, 0xde,
  0xf4, 0x2b, 0x34, 0xf7, 0xd9, 0xf6, 0xf3, 0xfd, 0x2d, 0xf8, 0x2b, 0xe2,
  0xfb, 0x3f, 0x20, 0x07, 0xe4, 0xc8, 0x0c, 0xdb, 0x35, 0xf3, 0x3a, 0xb9,
  0x1a, 0xd4, 0xff, 0x3d, 0x2d, 0x59, 0xf1, 0x11, 0xe1, 0xc0, 0x17, 0x14,
  0x10, 0x2e, 0x20, 0x4a, 0x49, 0xbe, 0xcd, 0xcc, 0xbd, 0x40, 0xec, 0x06,
  0x36, 0x18, 0x21, 0x26, 0xe0, 0x28, 0x1f, 0x19, 0x0e, 0xfe, 0xf6, 0x16,
  0xcc, 0xd4, 0xbe, 0xe0, 0xe6, 0xef, 0xfe, 0xcb, 0x03, 0x2c, 0xe8, 0xe6,
  0x38, 0x27, 0xd7, 0x11, 0x19, 0x39, 0xac, 0x1a, 0x0f, 0x3a, 0xde, 0xed,
  0x13, 0x5b, 0x17, 0x19, 0xcd, 0x02, 0xb5, 0x00, 0xff, 0x2a, 0xe6, 0x19,
  0xd3, 0x44, 0x2a, 0x2e, 0x4e, 0xfb, 0xdc, 0x37, 0xad, 0xc0, 0xf6, 0x0a,
  0xcd, 0x5c, 0x3d, 0xc3, 0x0a, 0xc2, 0xf2, 0x1e, 0x06, 0xea, 0xe4, 0x11,
  0x28, 0x15, 0xcd, 0x1f, 0x17, 0x2e, 0x3e, 0xc6, 0x20, 0xff, 0x0b, 0xd1,
  0x3e, 0xe4, 0xd1, 0x1f, 0x21, 0xf5, 0xbe, 0xe3, 0x40, 0xff, 0xec, 0xee,
  0xfc, 0x35, 0x44, 0xff, 0x35, 0xec, 0xff, 0xec, 0xe7, 0x3f, 0xb0, 0x35,
  0x17, 0xf0, 0xf1, 0xfc, 0xd6, 0xc3, 0x12, 0xbb, 0xe6, 0x1f, 0x2d, 0xba,
  0xa1, 0xb0, 0x25, 0x29, 0xdd, 0xc5, 0xc9, 0x0a, 0x0c, 0x46, 0xf9, 0xea,
  0x10, 0x21, 0xf9, 0xb2, 0x17, 0x43, 0x17, 0xf5, 0x46, 0x1e, 0xf7, 0xbd,
  0xaa, 0x13, 0x33, 0x16, 0x4d, 0x5d, 0x15, 0xe7, 0x1d, 0xe8, 0xef, 0x17,
  0x47, 0xe3, 0xd9, 0x14, 0xf3, 0xcc, 0x37, 0xd2, 0x38, 0x47, 0x22, 0xe1,
  0xaf, 0x4a, 0xe5, 0x50, 0xb7, 0xe0, 0xe8, 0x17, 0x24, 0xe8, 0x14, 0x26,
  0xcb, 0x1d, 0xdf, 0xdb, 0xf3, 0xca, 0x39, 0x1a, 0x8e, 0xee, 0xff, 0xff,
  0x04, 0x00, 0x00, 0x00, 0x20, 0x00, 0x00, 0x00, 0x39, 0x00, 0x00, 0x00,
  0x49, 0x00, 0x00, 0x00, 0xd2, 0xfe, 0xff, 0xff, 0xa9, 0xfe, 0xff, 0xff,
  0x4c, 0x00, 0x00, 0x00, 0x80, 0xfe, 0xff, 0xff, 0x07, 0xfe, 0xff, 0xff,
  0x0b, 0xff, 0xff, 0xff, 0xba, 0xee, 0xff, 0xff, 0x04, 0x00, 0x00, 0x00,
  0x80, 0x04, 0x00, 0x00, 0x17, 0xb7, 0xf8, 0x1b, 0xa0, 0x6e, 0xd2, 0x23,
  0x97, 0xfb, 0x8c, 0x96, 0xad, 0x96, 0x71, 0x1a, 0x38, 0x8e, 0xca, 0xb0,
  0x6a, 0xec, 0xf3, 0xd6, 0xe4, 0xc1, 0x9a, 0x66, 0x1c, 0x51, 0x1e, 0xa2,
  0x34, 0x50, 0x5c, 0x31, 0xea, 0x77, 0x55, 0xb6, 0xbc, 0x03, 0xa2, 0x21,
  0xec, 0x07, 0x28, 0x6c, 0xda, 0x64, 0xba, 0x12, 0xb9, 0x43, 0x23, 0xf6,
  0x04, 0xb2, 0xd2, 0xd1, 0x57, 0x3b, 0x6d, 0x9f, 0x4c, 0xc8, 0x36, 0xaa,
  0xfe, 0x1b, 0xc9, 0xd7, 0x97, 0x61, 0x0d, 0x64, 0x2e, 0xef, 0x68, 0x23,
  0x49, 0x0c, 0xbb, 0xc5, 0xbf, 0x12, 0xc9, 0x85, 0xe0, 0x55, 0x2f, 0xa6,
  0xca, 0x58, 0x9f, 0x33, 0xcc, 0x54, 0xcc, 0x6c, 0xb3, 0xfd, 0x58, 0x01,
  0x46, 0x6e, 0x3c, 0xac, 0xf7, 0x0f, 0x61, 0x20, 0xbb, 0x35, 0xfc, 0xe6,
  0xbb, 0xf4, 0xe8, 0x9a, 0x5c, 0xd8, 0x92, 0x78, 0xf2, 0x60, 0x18, 0x22,
  0x81, 0x38, 0x46, 0x2e, 0x8e, 0xe2, 0x1c, 0xa7, 0xd1, 0xb0, 0x1e, 0x23,
  0x6e, 0x4f, 0x73, 0x57, 0x20, 0x5f, 0xc6, 0x36, 0x2f, 0xa1, 0xf0, 0xaa,
  0x0e, 0x4f, 0xfc, 0x38, 0x6e, 0x63, 0xa5, 0x2a, 0x88, 0xab, 0xdd, 0xbc,
  0xc9, 0x92, 0x53, 0x9f, 0xf7, 0xf3, 0x2e, 0xac, 0x48, 0x3b, 0xce, 0xc0,
  0x02, 0xaf, 0xeb, 0xca, 0x9a, 0x1d, 0xf0, 0xef, 0x37, 0x0e, 0x81, 0x6d,
  0x32, 0x47, 0x49, 0x4c, 0x8a, 0x23, 0xce, 0x03, 0x3a, 0x15, 0x0a, 0x4e,
  0xb7, 0xe9, 0x1d, 0xd0, 0xa3, 0x56, 0xba, 0xd6, 0x8e, 0x0a, 0xe4, 0x01,
  0xb6, 0xfe, 0xa4, 0xa0, 0x38, 0xee, 0xa0, 0x25, 0x32, 0xeb, 0xb7, 0xd3,
  0x4a, 0x36, 0x10, 0xa7, 0x0c, 0x44, 0x9f, 0x06, 0xff, 0x39, 0x2b, 0x99,
  0xd4, 0x6e, 0x0c, 0x75, 0xff, 0x4c, 0xd7, 0xe3, 0x89, 0x4d, 0x67, 0x3c,
  0x56, 0xe4, 0x40, 0xa3, 0xa7, 0xf0, 0x8a, 0xfc, 0xa2, 0xac, 0x20, 0x30,
  0xcd, 0xff, 0x8e, 0x31, 0x44, 0xc5, 0xb4, 0xc5, 0x1c, 0x52, 0x9c, 0xed,
  0x59, 0xd7, 0x4c, 0xd2, 0xbf, 0xfb, 0x3d, 0x20, 0xaf, 0x4b, 0xc5, 0xdc,
  0x16, 0xe3, 0x6c, 0x07, 0x6b, 0x4f, 0x52, 0xfe, 0x65, 0x98, 0x5d, 0x20,
  0xf6, 0x2b, 0x60, 0x3a, 0x1a, 0xae, 0xc1, 0x4e, 0xaf, 0xe9, 0xea, 0x56,
  0x50, 0xac, 0x0b, 0x64, 0x36, 0x16, 0x63, 0xc4, 0xc0, 0xd5, 0x58, 0xeb,
  0x32, 0x12, 0xab, 0x4f, 0xbe, 0x95, 0x52, 0x3c, 0x6d, 0x32, 0x2d, 0x58,
  0xac, 0xf5, 0x2d, 0xf8, 0xfe, 0x0a, 0x94, 0x9b, 0xc3, 0x05, 0x5c, 0xc2,
  0xc6, 0x70, 0x86, 0x42, 0xf1, 0xc7, 0x94, 0x34, 0xdc, 0x9c, 0xf4, 0x09,
  0xe6, 0x1b, 0xcd, 0x62, 0xda, 0x81, 0x5b, 0x23, 0x67, 0x09, 0xff, 0x87,
  0x94, 0xe6, 0xa4, 0x28, 0x1b, 0xc7, 0x78, 0x06, 0x26, 0x59, 0xa8, 0xe5,
  0xb3, 0xcb, 0x3c, 0x0c, 0xba, 0xf8, 0x33, 0x29, 0x15, 0x64, 0xc7, 0x0b,
  0xce, 0xea, 0xaf, 0x67, 0xb3, 0xcf, 0x07, 0xa1, 0x5d, 0x00, 0x57, 0x2b,
  0x2e, 0x2f, 0x1c, 0xfb, 0xcc, 0xd3, 0xe2, 0xad, 0x92, 0x21, 0x09, 0x16,
  0xd7, 0x9e, 0x55, 0x70, 0xb3, 0xc3, 0x5b, 0xe1, 0x65, 0x93, 0xf4, 0x35,
  0xee, 0xf8, 0xb1, 0x5f, 0xe6, 0x55, 0x96, 0x63, 0xbc, 0x21, 0x2b, 0x64,
  0xd0, 0xb1, 0xbc, 0x5a, 0xe7, 0x32, 0x35, 0xa6, 0xfd, 0xc1, 0xe1, 0x50,
  0x07, 0x46, 0x2b, 0x7f, 0xb1, 0x5f, 0x00, 0xcf, 0x8f, 0xda, 0x99, 0x08,
  0xcc, 0xfb, 0xce, 0xb3, 0xf8, 0x45, 0xc4, 0xf0, 0xa1, 0x92, 0x09, 0x17,
  0x3a, 0x23, 0x8e, 0x31, 0xdb, 0x04, 0x85, 0xc7, 0x6d, 0x82, 0x34, 0xf0,
  0x43, 0x6e, 0x16, 0x3b, 0x91, 0x40, 0xc7, 0x9a, 0xd2, 0x04, 0xf1, 0xe3,
  0xf3, 0x38, 0x31, 0xc1, 0x5f, 0xb6, 0x95, 0x4a, 0xc2, 0x5c, 0xa6, 0x83,
  0x45, 0x3a, 0x5c, 0x92, 0xd0, 0x99, 0xf3, 0x14, 0x38, 0xf0, 0x3c, 0x4c,
  0x20, 0xf1, 0xf6, 0x5e, 0x93, 0x8f, 0x3c, 0xee, 0x1c, 0x3e, 0xf6, 0x69,
  0xfe, 0x18, 0xec, 0x0a, 0xfa, 0x55, 0xbb, 0xd7, 0x52, 0x22, 0x3a, 0x5e,
  0x40, 0x2b, 0x2c, 0x23, 0x28, 0x5d, 0x4b, 0x5f, 0x3f, 0x52, 0xf1, 0x3e,
  0x1c, 0xf0, 0x88, 0xe1, 0xfc, 0xcc, 0xf2, 0x61, 0x26, 0x0d, 0x31, 0xb3,
  0x1b, 0x3b, 0x5c, 0x70, 0xf5, 0xcf, 0x71, 0x54, 0xd1, 0xed, 0x0f, 0x11,
  0xf8, 0x8d, 0x48, 0x29, 0x3b, 0x92, 0xf2, 0xaa, 0x03, 0xa6, 0x4a, 0x3f,
  0x5d, 0x85, 0x54, 0x67, 0xc3, 0x2d, 0x49, 0x61, 0xdd, 0xd8, 0x08, 0xd3,
  0x2e, 0xa0, 0x26, 0xa9, 0x72, 0x7d, 0xc9, 0xfa, 0xb6, 0xcf, 0x0b, 0xfa,
  0x05, 0xb5, 0x1b, 0x8c, 0x65, 0xdd, 0xd7, 0x1f, 0x47, 0x30, 0xf8, 0x43,
  0xbc, 0x43, 0xa8, 0x53, 0xa4, 0x6f, 0x73, 0x3e, 0x69, 0x15, 0xa5, 0x72,
  0x2e, 0x2e, 0xf7, 0x4d, 0x7d, 0x9c, 0xc6, 0x9b, 0xa7, 0x12, 0xdf, 0x86,
  0x44, 0x29, 0xd9, 0xbc, 0xf2, 0xb6, 0x67, 0x71, 0x36, 0xbc, 0xc0, 0x5c,
  0x1e, 0x23, 0x07, 0xd0, 0xce, 0xa8, 0xaf, 0x63, 0xc8, 0xbf, 0x79, 0xe5,
  0xd0, 0x94, 0xf1, 0x85, 0x9c, 0xce, 0xa6, 0xa2, 0xe6, 0xa0, 0x6a, 0xff,
  0x7f, 0x49, 0xe6, 0xe8, 0xd3, 0xb6, 0x70, 0xba, 0x5f, 0x46, 0xc2, 0x0d,
  0x53, 0xfc, 0x35, 0xb2, 0x29, 0x3b, 0xbe, 0xe5, 0x46, 0xd1, 0x6b, 0xf7,
  0x1c, 0x05, 0x01, 0x54, 0xd2, 0x53, 0xed, 0x95, 0x56, 0x1b, 0x96, 0x30,
  0x25, 0xf3, 0x28, 0x0a, 0x60, 0xdd, 0x60, 0xbf, 0x55, 0xc9, 0x24, 0x5d,
  0xb1, 0xb6, 0x3d, 0x52, 0xa4, 0xfc, 0x2f, 0x81, 0x72, 0xca, 0x91, 0x3e,
  0xb3, 0x6c, 0x58, 0x53, 0xed, 0xc5, 0xae, 0xa9, 0xe9, 0x42, 0xaa, 0x9f,
  0xfc, 0x05, 0x3b, 0xe9, 0xdf, 0xca, 0xe7, 0xcd, 0xec, 0xc7, 0x50, 0xe0,
  0x3d, 0x1d, 0x2c, 0xdd, 0x0c, 0xf0, 0x09, 0x13, 0x2f, 0xea, 0xda, 0x4d,
  0x15, 0x34, 0xc0, 0x2e, 0x41, 0xcd, 0xdd, 0x95, 0xcb, 0x33, 0x23, 0x39,
  0x3b, 0xce, 0x2c, 0x93, 0x44, 0xee, 0xc0, 0x56, 0x2a, 0xf2, 0x19, 0x8d,
  0x2d, 0x3c, 0xa7, 0x6a, 0xcb, 0x2a, 0x08, 0x4e, 0x32, 0xfc, 0xac, 0xf6,
  0xe3, 0xe6, 0xbb, 0x27, 0xb6, 0xf5, 0x6e, 0xdd, 0xe8, 0x21, 0x5e, 0x8c,
  0x4b, 0x5e, 0x56, 0xb7, 0x13, 0xd3, 0x57, 0x25, 0xbe, 0x34, 0xa4, 0x9c,
  0x1d, 0xec, 0x6a, 0xdd, 0x55, 0x1f, 0x4c, 0x53, 0xea, 0x38, 0xf1, 0x04,
  0x58, 0xbb, 0xe4, 0x04, 0x39, 0xaf, 0x19, 0xa7, 0xd0, 0x88, 0x60, 0x95,
  0xf5, 0xb0, 0xbc, 0x0a, 0xcc, 0x2c, 0xa4, 0x61, 0x1e, 0x98, 0x56, 0x9b,
  0xd2, 0xf2, 0x15, 0x2a, 0xd4, 0xfa, 0xf9, 0xda, 0x29, 0xe9, 0xdb, 0x9c,
  0x00, 0x9f, 0x4d, 0x42, 0x63, 0xe0, 0x69, 0x33, 0x4b, 0x4d, 0xdc, 0x9f,
  0x00, 0xbc, 0x03, 0x0f, 0xa9, 0x8b, 0x22, 0x0d, 0x63, 0xc6, 0x41, 0xab,
  0x53, 0xa4, 0x57, 0x3a, 0xe1, 0xc6, 0xde, 0x1e, 0x1b, 0xf0, 0x00, 0xe3,
  0xfa, 0x9a, 0xa3, 0x9d, 0x03, 0xa8, 0x95, 0x47, 0x51, 0x21, 0xff, 0xe6,
  0x53, 0x18, 0xe4, 0x29, 0x5d, 0xaf, 0x5d, 0xb3, 0x4b, 0xa0, 0xff, 0xc3,
  0x17, 0x4b, 0xec, 0xed, 0x30, 0x09, 0x5e, 0x40, 0xdb, 0x05, 0x7f, 0x68,
  0x91, 0x45, 0xe9, 0x0a, 0x29, 0x9f, 0xdd, 0xd0, 0xde, 0x19, 0x64, 0x2a,
  0xe0, 0x05, 0xd9, 0x0d, 0x51, 0x50, 0xe0, 0x3d, 0xea, 0x16, 0x61, 0x39,
  0x0e, 0x2f, 0xa4, 0x26, 0xf3, 0x0c, 0xc9, 0x56, 0xae, 0xa5, 0x19, 0xf7,
  0xd8, 0x20, 0x2d, 0xe9, 0xc8, 0xc2, 0x06, 0x71, 0x2c, 0x68, 0xd6, 0x05,
  0x9c, 0xfb, 0x2e, 0x74, 0x09, 0xba, 0x23, 0x51, 0xdc, 0xf1, 0x86, 0xd7,
  0x4a, 0x1b, 0x2e, 0xdb, 0x3c, 0x6e, 0x38, 0x36, 0x6d, 0x11, 0xea, 0xe5,
  0xed, 0xce, 0x10, 0x06, 0xd0, 0xad, 0x13, 0x4d, 0x95, 0x05, 0x03, 0xb1,
  0x13, 0x59, 0xa9, 0xba, 0x0b, 0xe2, 0xae, 0x98, 0x4d, 0x25, 0x68, 0xc8,
  0x9c, 0x0f, 0x1b, 0xd1, 0xcb, 0x8f, 0xfe, 0x4b, 0x00, 0x60, 0x0e, 0x23,
  0x97, 0xa6, 0x47, 0xad, 0x47, 0x12, 0xae, 0x61, 0x5f, 0x58, 0x2c, 0xd1,
  0x3b, 0x1e, 0xb5, 0x63, 0x4d, 0x28, 0xff, 0xc2, 0xb9, 0x75, 0x6f, 0x91,
  0xf5, 0xe3, 0xa4, 0xec, 0x58, 0x99, 0xfc, 0x10, 0xce, 0x41, 0x31, 0x52,
  0x61, 0x02, 0x3d, 0xb1, 0x81, 0x0d, 0x23, 0xb7, 0x29, 0x02, 0x2b, 0xf4,
  0xef, 0xed, 0x5b, 0xa5, 0xb7, 0xa3, 0xbd, 0xdd, 0xac, 0x27, 0x27, 0x61,
  0x56, 0x50, 0x3b, 0xa8, 0xe1, 0x94, 0xb9, 0xbc, 0x3e, 0x33, 0x4b, 0x48,
  0x76, 0xb9, 0x5c, 0x59, 0x46, 0xf3, 0xff, 0xff, 0x04, 0x00, 0x00, 0x00,
  0x10, 0x00, 0x00, 0x00, 0x8c, 0xc6, 0xe8, 0xac, 0xe3, 0x02, 0xc7, 0xbb,
  0x99, 0xbb, 0x80, 0xeb, 0xb8, 0xd6, 0xb1, 0xea, 0x62, 0xf3, 0xff, 0xff,
  0x04, 0x00, 0x00, 0x00, 0x10, 0x00, 0x00, 0x00, 0xf7, 0x39, 0xe3, 0x09,
  0x7c, 0x5b, 0xe9, 0xfc, 0x01, 0x6c, 0xe9, 0x7f, 0x44, 0x20, 0xed, 0x44,
  0x7e, 0xf3, 0xff, 0xff, 0x04, 0x00, 0x00, 0x00, 0x40, 0x00, 0x00, 0x00,
  0x22, 0x00, 0x00, 0x00, 0x24, 0x00, 0x00, 0x00, 0x75, 0xff, 0xff, 0xff,
  0xc3, 0xff, 0xff, 0xff, 0x42, 0xff, 0xff, 0xff, 0x95, 0xff, 0xff, 0xff,
  0x17, 0x01, 0x00, 0x00, 0x8c, 0x00, 0x00, 0x00, 0x95, 0x00, 0x00, 0x00,
  0xcc, 0xff, 0xff, 0xff, 0x8a, 0xff, 0xff, 0xff, 0xd2, 0xff, 0xff, 0xff,
  0xa7, 0x00, 0x00, 0x00, 0xd0, 0x00, 0x00, 0x00, 0x54, 0x01, 0x00, 0x00,
  0x37, 0x00, 0x00, 0x00, 0xca, 0xf3, 0xff, 0xff, 0x04, 0x00, 0x00, 0x00,
  0x00, 0x09, 0x00, 0x00, 0xf6, 0xaf, 0x49, 0x0d, 0x59, 0xbb, 0xec, 0x68,
  0x43, 0xac, 0x25, 0xbe, 0x02, 0x56, 0x30, 0x6f, 0xcd, 0xfc, 0x4c, 0x74,
  0xbf, 0x57, 0x23, 0xe9, 0xe9, 0x74, 0xeb, 0x42, 0x0a, 0xb3, 0x98, 0xf2,
  0xf0, 0x9a, 0x93, 0xc3, 0x08, 0x57, 0x23, 0xdb, 0xfe, 0xc2, 0x31, 0x6e,
  0xd3, 0x55, 0x34, 0xc6, 0xe6, 0xd2, 0xd6, 0x63, 0xec, 0xfb, 0x11, 0x65,
  0x42, 0xe9, 0x30, 0xf7, 0x51, 0xc6, 0x15, 0x39, 0xae, 0x37, 0xb6, 0xdb,
  0x4c, 0xed, 0x09, 0x45, 0xde, 0xef, 0x59, 0xb3, 0x39, 0x77, 0xe3, 0x7a,
  0x37, 0xc0, 0x15, 0xef, 0xb9, 0xc7, 0x4d, 0xbf, 0x0c, 0xfb, 0x63, 0x19,
  0xb7, 0xd6, 0x9c, 0x7f, 0x30, 0x7b, 0xc2, 0xe2, 0x02, 0xec, 0x20, 0xa9,
  0x06, 0xf6, 0x37, 0x2f, 0xfd, 0x36, 0xce, 0x54, 0x27, 0xc3, 0x10, 0xb8,
  0xa4, 0xd5, 0xa6, 0xe1, 0x41, 0x2c, 0xcc, 0x5e, 0x55, 0x71, 0x1e, 0xb0,
  0x8f, 0x5b, 0xcf, 0xbe, 0x13, 0x2f, 0xf0, 0xc3, 0xbe, 0x4c, 0x34, 0x3a,
  0x53, 0x1b, 0xdd, 0xb3, 0xf5, 0xaa, 0x01, 0x23, 0xc1, 0x00, 0x2b, 0xdb,
  0x06, 0xf9, 0xa3, 0x49, 0xdc, 0x41, 0x18, 0xa0, 0xdf, 0x49, 0xaf, 0xe9,
  0x15, 0x35, 0xd5, 0xba, 0xc2, 0xa8, 0x3b, 0xe1, 0xe3, 0xb7, 0x29, 0x1c,
  0xe2, 0xca, 0x11, 0x24, 0x4d, 0xc4, 0xe6, 0xc2, 0x29, 0xdc, 0x2f, 0x1f,
  0xb3, 0xcb, 0xae, 0xbe, 0xd6, 0xa4, 0xc2, 0x19, 0xbc, 0x62, 0xa8, 0xe5,
  0x1b, 0xef, 0x0e, 0xad, 0xb6, 0x32, 0xb1, 0x3e, 0x09, 0xa6, 0xbc, 0x42,
  0xfc, 0x02, 0x34, 0xa6, 0x1c, 0xe8, 0xd7, 0x18, 0xa7, 0x1a, 0xda, 0x99,
  0x17, 0x27, 0xf3, 0x2c, 0xfa, 0x44, 0xcd, 0x32, 0xd8, 0x25, 0x4d, 0x5b,
  0x1d, 0xb8, 0xa8, 0x81, 0xb1, 0x4a, 0xbb, 0xd8, 0x55, 0xe9, 0x4f, 0xe6,
  0xcf, 0x07, 0x48, 0x09, 0x51, 0x01, 0xb3, 0xb4, 0xe1, 0xb0, 0x0a, 0x51,
  0xb1, 0xad, 0x47, 0x41, 0x1d, 0xf4, 0x2d, 0x5f, 0xf9, 0xb5, 0xcd, 0x8a,
  0x14, 0xfd, 0xdf, 0x49, 0x01, 0x5b, 0x4e, 0x1a, 0x1c, 0xf0, 0x2e, 0xb3,
  0xba, 0x54, 0xf7, 0xaa, 0xa8, 0x4c, 0x97, 0xed, 0x38, 0xca, 0x12, 0x07,
  0x29, 0xdb, 0x63, 0x75, 0xfc, 0x12, 0x0e, 0x37, 0x5e, 0x14, 0xd4, 0x11,
  0x75, 0xf8, 0x33, 0x7a, 0x41, 0x4b, 0x1c, 0x43, 0x98, 0xa6, 0xdf, 0xf7,
  0xe5, 0xd3, 0xd9, 0xc7, 0x72, 0xc7, 0x29, 0x41, 0x59, 0xe1, 0x8d, 0x63,
  0x37, 0x4c, 0x2d, 0xed, 0x9a, 0x53, 0xb5, 0x35, 0x06, 0xd0, 0x99, 0x9f,
  0xd0, 0x69, 0x8e, 0x9c, 0x58, 0x00, 0xd5, 0xb8, 0xb7, 0x57, 0x38, 0xff,
  0xab, 0x4f, 0x7b, 0xbb, 0xd2, 0xc5, 0x91, 0x9f, 0x69, 0x7b, 0xa6, 0x7f,
  0x41, 0x05, 0x98, 0x33, 0xc1, 0x3d, 0xee, 0x1b, 0x4d, 0xde, 0x37, 0x0c,
  0x9a, 0xdc, 0x33, 0xbf, 0x73, 0x5e, 0x9d, 0xb2, 0xb3, 0xb1, 0x21, 0xaa,
  0xc3, 0xa7, 0x0d, 0xf8, 0xd8, 0xf5, 0xbb, 0xe1, 0xbd, 0x52, 0x42, 0xf4,
  0x29, 0xba, 0xc0, 0xab, 0xb2, 0x1b, 0xa9, 0x12, 0x09, 0xc7, 0xb9, 0x68,
  0x68, 0xb2, 0x00, 0xa4, 0xb9, 0x38, 0x2e, 0xe0, 0x54, 0x3c, 0x2f, 0x46,
  0xd6, 0xdc, 0x99, 0x22, 0xae, 0xa3, 0x46, 0x35, 0x12, 0xd3, 0xee, 0xb2,
  0xe3, 0x9b, 0x4a, 0xdf, 0xb1, 0x57, 0x91, 0x46, 0x44, 0x5f, 0xce, 0x20,
  0xb2, 0x59, 0x49, 0x50, 0xa7, 0xff, 0x42, 0x55, 0xf0, 0x9c, 0x95, 0xb4,
  0x0b, 0x04, 0x3b, 0xb4, 0xd9, 0x36, 0x67, 0xe3, 0xef, 0x53, 0x83, 0x11,
  0xc1, 0x3c, 0xa4, 0x59, 0x0b, 0x60, 0x01, 0x79, 0x72, 0x17, 0xb6, 0x30,
  0xd4, 0xa2, 0xa6, 0xae, 0xa1, 0x9b, 0x60, 0x26, 0x12, 0xae, 0xae, 0x58,
  0x1c, 0x2f, 0x12, 0x45, 0x2f, 0xab, 0x2f, 0x42, 0x4e, 0xc6, 0x5c, 0xaa,
  0xe8, 0xde, 0xe1, 0x02, 0xfd, 0xbf, 0xb9, 0xe4, 0xd6, 0x19, 0xcb, 0xab,
  0xa5, 0x7d, 0x05, 0x6b, 0xc8, 0xec, 0xfa, 0xb9, 0x55, 0x20, 0xb7, 0xec,
  0xb3, 0x34, 0x53, 0xee, 0x20, 0xd3, 0x39, 0xda, 0x27, 0x02, 0x53, 0x56,
  0xbb, 0x11, 0xea, 0x27, 0xbc, 0xe2, 0x81, 0xf7, 0xb8, 0xaf, 0x55, 0x46,
  0x4a, 0xf1, 0x57, 0x57, 0xac, 0xa1, 0x2b, 0xfb, 0xcd, 0x7c, 0xc3, 0xc0,
  0xcb, 0xf7, 0xb8, 0x19, 0x18, 0x71, 0xe5, 0x84, 0x13, 0x03, 0xa8, 0x52,
  0x56, 0x47, 0x86, 0xdd, 0x6c, 0x41, 0xb8, 0xb7, 0xc9, 0x54, 0x42, 0xc0,
  0xfa, 0xf4, 0x91, 0xe6, 0x01, 0x71, 0x27, 0x1c, 0x25, 0x23, 0x36, 0x37,
  0xa8, 0x7e, 0xbd, 0xaa, 0xb3, 0x84, 0xc5, 0x2a, 0x0c, 0x2c, 0x66, 0x92,
  0xdc, 0xa4, 0x99, 0x5b, 0x65, 0x19, 0x58, 0x43, 0xd4, 0xac, 0x35, 0x2d,
  0xeb, 0xa9, 0xfe, 0x15, 0xe8, 0xe1, 0xb8, 0xcf, 0xa2, 0x9d, 0x13, 0x66,
  0x21, 0xf4, 0xb5, 0x7f, 0x57, 0xd8, 0x93, 0x9e, 0xda, 0x8d, 0xa1, 0x48,
  0x40, 0xa1, 0x25, 0x6f, 0xd2, 0xe0, 0x61, 0xf0, 0x9a, 0xfc, 0xcd, 0x8e,
  0x2c, 0xa9, 0x7c, 0xa4, 0x79, 0x06, 0xde, 0xf2, 0x0c, 0x50, 0x44, 0x0f,
  0xaf, 0x2c, 0xe5, 0xe0, 0xed, 0xaa, 0x2a, 0x14, 0x53, 0x60, 0x7d, 0x6a,
  0xaa, 0xf6, 0xda, 0x19, 0x92, 0xfb, 0xa5, 0xd9, 0x72, 0xb7, 0x6e, 0x59,
  0xe8, 0x16, 0x97, 0x76, 0x5e, 0xb1, 0xac, 0x17, 0x32, 0xbd, 0xa8, 0xf1,
  0x11, 0xe3, 0x8e, 0x69, 0xa6, 0xb8, 0xbe, 0x50, 0x8d, 0xe0, 0x7f, 0x48,
  0x58, 0xdf, 0x39, 0xa8, 0xe2, 0xdc, 0xa0, 0x8f, 0x12, 0x6e, 0x2f, 0xa7,
  0xbd, 0x6f, 0x59, 0xcb, 0xcc, 0xe7, 0xaa, 0xa2, 0x53, 0x96, 0x04, 0x47,
  0xf4, 0x65, 0x97, 0x17, 0x58, 0x68, 0x55, 0xea, 0x2e, 0xe7, 0x46, 0xb6,
  0x69, 0x31, 0xa8, 0xe6, 0x05, 0xd3, 0x7e, 0x5e, 0x13, 0xce, 0xc9, 0xd0,
  0x92, 0xc8, 0xaf, 0x3a, 0x6f, 0xb3, 0xf2, 0x2e, 0xd3, 0x92, 0x81, 0x65,
  0x9c, 0x10, 0x0a, 0xb9, 0xb1, 0xdf, 0x04, 0x24, 0x0e, 0x9e, 0x2d, 0x41,
  0x48, 0xc0, 0x50, 0xe7, 0x40, 0x42, 0xed, 0x05, 0x9c, 0x4e, 0xff, 0x5d,
  0x22, 0xe5, 0x0c, 0xb3, 0xc3, 0x75, 0x32, 0x55, 0xc1, 0xf2, 0x03, 0x89,
  0x3a, 0x34, 0xb0, 0x32, 0x4b, 0xe7, 0x91, 0xd4, 0x02, 0x26, 0x08, 0xb0,
  0xa0, 0xaa, 0x51, 0x1b, 0x1f, 0x9d, 0x70, 0xae, 0xf0, 0xf5, 0xd8, 0x75,
  0xa2, 0x52, 0xa9, 0x3b, 0x6a, 0xdc, 0x41, 0x1d, 0xac, 0xc2, 0x3f, 0x36,
  0xcd, 0x1d, 0x1c, 0xcb, 0xfc, 0x03, 0x57, 0xad, 0xbf, 0x8d, 0x20, 0x96,
  0x2f, 0xba, 0x3f, 0x31, 0x57, 0x2a, 0x9f, 0x09, 0x33, 0x81, 0xc5, 0x51,
  0xbc, 0xfa, 0x08, 0x09, 0x67, 0xc8, 0x1e, 0xee, 0x2a, 0x56, 0x02, 0x4d,
  0x55, 0x21, 0x4d, 0xd1, 0xa9, 0xbc, 0x9c, 0xb4, 0x59, 0x01, 0xfc, 0x03,
  0x5b, 0x56, 0x98, 0x11, 0xe6, 0xc7, 0xa5, 0x43, 0x0d, 0x3d, 0x62, 0xe4,
  0xbd, 0x9c, 0xdd, 0xa9, 0xee, 0x3f, 0x28, 0xb0, 0xb4, 0x61, 0xcb, 0x3b,
  0x48, 0xd1, 0x6a, 0x73, 0x41, 0x2f, 0x74, 0x3f, 0x01, 0xd2, 0x91, 0x10,
  0xa4, 0xd8, 0x8a, 0x30, 0x9c, 0xaf, 0xf3, 0xbc, 0x66, 0xaf, 0xa1, 0x2c,
  0x18, 0x8a, 0xda, 0x34, 0x54, 0xb3, 0xc2, 0x0f, 0x45, 0xad, 0xcc, 0xe3,
  0xe8, 0x4f, 0x61, 0x90, 0x9b, 0x0b, 0x0a, 0x36, 0xaf, 0x1e, 0x05, 0xed,
  0x69, 0x36, 0x55, 0x4c, 0x0f, 0xbd, 0xd3, 0xc4, 0xd8, 0x19, 0xca, 0x1d,
  0x8a, 0xd8, 0xee, 0x5e, 0x6b, 0x98, 0x0b, 0x61, 0x45, 0x17, 0xf3, 0xb8,
  0xbe, 0x15, 0xfa, 0xd2, 0xa0, 0x1e, 0xeb, 0x20, 0x2f, 0x99, 0xfc, 0x8a,
  0xea, 0x0c, 0x26, 0x9b, 0xa9, 0x02, 0xbd, 0x6c, 0xd2, 0x28, 0x01, 0x6b,
  0xdc, 0xf9, 0xbe, 0xb4, 0x0c, 0x01, 0x4a, 0x3d, 0x0c, 0x15, 0xd2, 0x43,
  0xc0, 0xc1, 0xbf, 0x5a, 0xcd, 0xf4, 0xcd, 0x23, 0xd3, 0xaa, 0x0f, 0x06,
  0x01, 0xfd, 0x15, 0x2d, 0xb1, 0xbf, 0x57, 0xf1, 0x20, 0xc9, 0x45, 0x9f,
  0x40, 0xc0, 0x0f, 0x17, 0x53, 0xdb, 0x21, 0xf1, 0x5e, 0x5f, 0xc2, 0x56,
  0x0a, 0x64, 0x47, 0xfb, 0x37, 0x3b, 0x00, 0x68, 0x21, 0x18, 0x28, 0x00,
  0xea, 0xeb, 0x1a, 0xe2, 0xc2, 0x98, 0xbe, 0x0e, 0x44, 0xeb, 0x69, 0xd8,
  0x64, 0x5b, 0x62, 0xda, 0xce, 0x10, 0xb0, 0xc5, 0x47, 0xf2, 0x1f, 0xca,
  0xfc, 0x67, 0x19, 0x2d, 0x3f, 0xbe, 0xb2, 0x43, 0x15, 0x37, 0x49, 0x41,
  0xfc, 0xd6, 0xd9, 0x4d, 0xdb, 0x53, 0x5e, 0x9d, 0x19, 0xb7, 0x0e, 0x7f,
  0xe4, 0x91, 0xef, 0xa9, 0xe7, 0x2b, 0xe5, 0x96, 0xb8, 0x9b, 0xf8, 0xe0,
  0x27, 0xbf, 0x60, 0xc6, 0x4d, 0x8f, 0xb7, 0x29, 0x3a, 0x48, 0xa1, 0xe7,
  0xf9, 0x03, 0xa3, 0x49, 0xd3, 0x54, 0x39, 0xec, 0xee, 0xf7, 0xf2, 0x08,
  0x56, 0x29, 0x10, 0xa2, 0x15, 0x8b, 0xc1, 0x0a, 0x28, 0xed, 0x11, 0x8c,
  0x12, 0x97, 0x05, 0xee, 0xb0, 0xd1, 0xa9, 0xe9, 0x3a, 0x62, 0xb7, 0x18,
  0xe4, 0x54, 0x14, 0x49, 0x3c, 0x6e, 0x52, 0x6b, 0xd6, 0x5f, 0x40, 0x0b,
  0xa2, 0xfe, 0xbc, 0x16, 0x5a, 0x46, 0xe0, 0x3f, 0x33, 0xf8, 0x13, 0xbf,
  0x27, 0xb7, 0x32, 0x5c, 0x1c, 0x43, 0x7f, 0xc4, 0x10, 0xbb, 0x3e, 0x00,
  0xc5, 0x2f, 0x02, 0x4e, 0xcd, 0x06, 0x14, 0x57, 0x43, 0x4c, 0x2d, 0xad,
  0xf4, 0xd8, 0xcf, 0x33, 0x06, 0xce, 0xb5, 0x00, 0x71, 0x32, 0x09, 0x5b,
  0xfc, 0xcc, 0x3a, 0x5a, 0x36, 0xaa, 0xf2, 0x11, 0x06, 0x35, 0x9d, 0x23,
  0x68, 0xe6, 0xc4, 0x00, 0xfa, 0x00, 0x7f, 0x0e, 0x26, 0x1c, 0x68, 0xf9,
  0xeb, 0x22, 0x4d, 0xb0, 0x6c, 0xac, 0xaf, 0xcd, 0xd7, 0xad, 0x35, 0x2d,
  0xdc, 0xd1, 0xd2, 0xc1, 0x2e, 0x48, 0xf7, 0xae, 0x12, 0xb6, 0xb5, 0xe9,
  0xcd, 0x5d, 0x41, 0xac, 0x4c, 0x0e, 0xa5, 0x3b, 0xa4, 0xfd, 0x18, 0x99,
  0xc0, 0x04, 0x70, 0x2b, 0xa7, 0xe3, 0x57, 0xcd, 0x92, 0xd2, 0x98, 0xf1,
  0xa3, 0xe3, 0xf5, 0xef, 0x1b, 0xcf, 0xd9, 0xce, 0x90, 0x10, 0x48, 0x64,
  0x28, 0x49, 0xa9, 0x0d, 0x5e, 0x10, 0xa8, 0xa2, 0xe4, 0x2e, 0x67, 0x34,
  0x87, 0xb2, 0xf4, 0xcd, 0xe7, 0xf6, 0x03, 0x9e, 0xbb, 0x39, 0xe7, 0x6c,
  0x5a, 0xff, 0xcf, 0x14, 0xd3, 0x34, 0x99, 0xd3, 0x75, 0xef, 0x3c, 0x81,
  0x57, 0x6d, 0xfb, 0xba, 0x65, 0x55, 0x17, 0xf9, 0x55, 0x01, 0x1f, 0x0e,
  0x97, 0xf5, 0x3a, 0x0d, 0xe5, 0x9f, 0xa9, 0x0a, 0xfe, 0xa1, 0x52, 0x41,
  0x3c, 0xf3, 0xdf, 0xfe, 0xcd, 0x64, 0x9c, 0x95, 0xa4, 0x9a, 0xd7, 0xc6,
  0x01, 0xa9, 0x94, 0xca, 0x8f, 0x86, 0x48, 0x50, 0x13, 0x44, 0x43, 0x82,
  0x3a, 0x22, 0xa4, 0xd8, 0xe7, 0xa3, 0x56, 0xa3, 0xd3, 0xc8, 0x2a, 0xe5,
  0x02, 0x28, 0xb2, 0xa8, 0x9b, 0x41, 0xa8, 0xf8, 0xb5, 0xb1, 0x4d, 0x53,
  0xad, 0xf8, 0xf1, 0x41, 0x59, 0xf0, 0x22, 0xda, 0xbe, 0x20, 0x2f, 0x25,
  0xc8, 0x60, 0x3d, 0xf0, 0x3f, 0xd2, 0x39, 0x3f, 0x35, 0x09, 0x36, 0xb4,
  0xda, 0x35, 0x09, 0x28, 0xe9, 0x04, 0xdb, 0x04, 0x34, 0x33, 0x87, 0xea,
  0xbd, 0xae, 0x24, 0x41, 0xc4, 0x2f, 0xf9, 0x66, 0x12, 0xee, 0xcb, 0x0f,
  0xf8, 0xc9, 0x04, 0xe3, 0x09, 0xbc, 0x28, 0x46, 0xa9, 0x1a, 0x0d, 0xc8,
  0xc0, 0xd5, 0x48, 0x2f, 0x40, 0x41, 0x38, 0x40, 0x08, 0x34, 0xfd, 0xeb,
  0x54, 0xe0, 0x43, 0x6e, 0xbc, 0x10, 0x0e, 0x47, 0xbe, 0xf8, 0xb4, 0xce,
  0x5c, 0x27, 0x36, 0x42, 0xf8, 0x09, 0xfc, 0xff, 0x30, 0x4c, 0x02, 0xda,
  0xd4, 0xdf, 0x9f, 0x34, 0x50, 0xd8, 0x20, 0xf4, 0x44, 0x29, 0xf8, 0xb9,
  0xcc, 0xf2, 0x48, 0x1e, 0xe4, 0x6b, 0x81, 0x1d, 0x55, 0x62, 0x4a, 0x74,
  0xbd, 0x5c, 0xda, 0x48, 0x64, 0x62, 0x10, 0xb5, 0xf2, 0x21, 0xb5, 0x41,
  0xf5, 0xc8, 0x9d, 0x03, 0x46, 0x8f, 0x55, 0x41, 0x68, 0xb9, 0x1a, 0x4e,
  0xfe, 0xaa, 0xbe, 0x93, 0xcf, 0x31, 0xfc, 0xf9, 0x07, 0x96, 0x1f, 0xbd,
  0x25, 0x72, 0xf2, 0x1a, 0x8e, 0xf9, 0x24, 0x2f, 0xc2, 0x83, 0x50, 0x4a,
  0x72, 0x55, 0x0e, 0x29, 0xb0, 0xb8, 0x18, 0x31, 0xa6, 0x3c, 0x0e, 0xbe,
  0x0a, 0xeb, 0x21, 0x12, 0xd5, 0x71, 0x27, 0xe1, 0x5f, 0x51, 0x0d, 0xae,
  0x54, 0xcd, 0x59, 0xc0, 0x35, 0x99, 0x4f, 0x29, 0xee, 0x6d, 0x40, 0x43,
  0x31, 0xe9, 0xab, 0xa5, 0xb9, 0xdb, 0x3c, 0x0a, 0x3d, 0xf8, 0x01, 0xb5,
  0xda, 0xfe, 0x55, 0x81, 0x85, 0x70, 0x47, 0x52, 0xbf, 0x67, 0x1c, 0xfd,
  0xee, 0x06, 0xaf, 0x26, 0x3c, 0x0b, 0x53, 0xe8, 0xfd, 0xa1, 0x09, 0xb5,
  0x6f, 0x36, 0x5b, 0x32, 0x95, 0x94, 0xcc, 0x69, 0x05, 0x8f, 0x41, 0xbd,
  0x1e, 0x9b, 0x2e, 0x13, 0x9a, 0xa6, 0x57, 0x0d, 0x4d, 0xeb, 0x10, 0x00,
  0x01, 0x48, 0xb5, 0x01, 0x4a, 0x0f, 0x2a, 0x4d, 0xb7, 0xb9, 0x47, 0x0b,
  0xfc, 0xb3, 0x3a, 0x74, 0x62, 0x14, 0x10, 0x0b, 0x9d, 0x53, 0x3a, 0xb4,
  0xb9, 0xf5, 0x46, 0x64, 0x24, 0x3d, 0x50, 0xf2, 0xd3, 0xbd, 0x97, 0x9d,
  0x53, 0x4f, 0x5d, 0x51, 0x2b, 0x00, 0xbc, 0xbf, 0x43, 0x03, 0x42, 0x81,
  0x96, 0xb2, 0x4a, 0x5a, 0x67, 0x0a, 0xcd, 0xfa, 0xcf, 0xdf, 0x05, 0x2a,
  0x21, 0xa7, 0xc6, 0xc2, 0x0f, 0x3e, 0x00, 0x3f, 0xbe, 0x42, 0x12, 0x20,
  0xa3, 0xc8, 0x4c, 0xce, 0x21, 0xb8, 0xf8, 0xa2, 0xab, 0x20, 0xb8, 0x44,
  0x4c, 0xee, 0x31, 0xfc, 0x87, 0xd9, 0xcc, 0x52, 0xc6, 0xbf, 0x4b, 0xd3,
  0xff, 0x46, 0x05, 0x0d, 0x62, 0xb5, 0x1e, 0x59, 0x94, 0x5f, 0x34, 0xc9,
  0xa6, 0x9c, 0x3a, 0x97, 0x20, 0x38, 0xb5, 0xf7, 0xa3, 0xc8, 0x4e, 0x4e,
  0xb4, 0xfe, 0x27, 0xf3, 0x66, 0x72, 0xcf, 0xd7, 0x85, 0x4b, 0x68, 0xd9,
  0x39, 0x53, 0x0e, 0xfd, 0xa6, 0xe0, 0x69, 0x42, 0xf4, 0x26, 0xb0, 0xd7,
  0x62, 0x94, 0xdf, 0x13, 0xd6, 0xfc, 0x57, 0x06, 0xc6, 0x98, 0xf1, 0xbb,
  0x1e, 0xc8, 0x2e, 0x2b, 0x1d, 0x1f, 0x26, 0x33, 0xa1, 0xab, 0xb4, 0x6c,
  0x4c, 0xa5, 0x0d, 0x0d, 0xa4, 0x72, 0x19, 0xb7, 0x0f, 0xfb, 0x6a, 0x95,
  0x3e, 0x05, 0x05, 0x0d, 0xde, 0x4d, 0x5b, 0x3e, 0x40, 0x12, 0x8c, 0x5b,
  0x02, 0xae, 0x28, 0xfb, 0xf7, 0xd1, 0xfc, 0x91, 0x18, 0xe3, 0xbf, 0xf9,
  0xbc, 0xf0, 0x75, 0x99, 0xa7, 0xb3, 0x49, 0x1c, 0x31, 0xe2, 0x5a, 0x20,
  0xcb, 0xb4, 0xe8, 0xdf, 0xdd, 0x55, 0x45, 0x92, 0x07, 0x78, 0x6a, 0xef,
  0x7a, 0x46, 0xb8, 0x97, 0x0c, 0x40, 0x08, 0xe4, 0x9e, 0x2d, 0xc3, 0xe1,
  0x9d, 0x94, 0x22, 0xea, 0xe9, 0xb4, 0x92, 0x02, 0x15, 0x06, 0x63, 0x50,
  0x65, 0x83, 0x10, 0x8b, 0x85, 0xcf, 0xf0, 0x35, 0xc8, 0xc3, 0xa1, 0x95,
  0xa4, 0x81, 0x09, 0xfb, 0x9c, 0x34, 0xbb, 0xa8, 0xfc, 0xde, 0xe6, 0xf4,
  0xb9, 0x07, 0xa9, 0xe8, 0x27, 0xbb, 0x32, 0x2b, 0x1c, 0xc8, 0xb8, 0x91,
  0xf4, 0xd8, 0x64, 0x8f, 0x5f, 0xa6, 0x08, 0x1d, 0xc3, 0x16, 0xdd, 0xe9,
  0x1b, 0xcf, 0xce, 0x9d, 0xc7, 0xa1, 0xb9, 0xc4, 0xf0, 0x27, 0x22, 0x00,
  0x9a, 0xc5, 0xc9, 0x35, 0x03, 0x1f, 0xb4, 0xf1, 0x2a, 0x0a, 0x2e, 0x36,
  0xd1, 0x99, 0x22, 0xbe, 0xbc, 0x63, 0x51, 0x1b, 0x16, 0x4c, 0xa3, 0x4b,
  0x50, 0xde, 0xf8, 0x26, 0x0e, 0xb4, 0xdb, 0xce, 0x9d, 0xff, 0x29, 0xa3,
  0xee, 0x9c, 0xd9, 0x9a, 0x4b, 0x08, 0xf0, 0xa8, 0xb4, 0x63, 0xa1, 0x44,
  0x3b, 0x00, 0x20, 0x02, 0xe7, 0x32, 0xd7, 0x6b, 0x02, 0x99, 0x37, 0x48,
  0x03, 0xaf, 0x59, 0xf8, 0x63, 0xc3, 0x2d, 0x54, 0x43, 0x33, 0xf1, 0xb1,
  0x1e, 0x21, 0xcf, 0xfb, 0x39, 0x55, 0x1f, 0x0c, 0x6c, 0x4d, 0xb2, 0x47,
  0x00, 0xc1, 0x07, 0x89, 0xea, 0x5e, 0x99, 0xf7, 0xeb, 0x6e, 0x9f, 0xa0,
  0xf1, 0x95, 0x13, 0x55, 0x15, 0xf6, 0x51, 0x62, 0xd6, 0xa9, 0x79, 0xde,
  0xd2, 0xbd, 0xc6, 0x0c, 0xa8, 0xca, 0x39, 0xff, 0xa4, 0x43, 0xf4, 0x81,
  0x2d, 0x10, 0x2b, 0xe7, 0xd5, 0x69, 0xe1, 0x3f, 0x13, 0xf4, 0x34, 0x37,
  0xb1, 0xa8, 0xa5, 0xf4, 0x2c, 0x31, 0x40, 0x1d, 0x6b, 0x94, 0x3b, 0xfc,
  0xb7, 0x6e, 0xc3, 0xa9, 0x49, 0x3f, 0xa9, 0xe4, 0x9a, 0x6b, 0x59, 0xdc,
  0x62, 0x46, 0xae, 0x14, 0xc6, 0xf7, 0x33, 0x63, 0x9f, 0xf6, 0xed, 0xdf,
  0xa6, 0xff, 0x14, 0x90, 0x39, 0xd5, 0xdf, 0x64, 0x9c, 0x5e, 0x9e, 0x93,
  0x1d, 0x59, 0x51, 0xd9, 0x19, 0xb0, 0x5d, 0xf8, 0xa8, 0xe5, 0xeb, 0xf1,
  0xc0, 0xe7, 0xe4, 0x5d, 0x1f, 0x62, 0x05, 0xa0, 0x0f, 0x9e, 0xcb, 0xd6,
  0x92, 0x41, 0x00, 0x41, 0xe0, 0xb1, 0x60, 0x74, 0xdc, 0x93, 0xed, 0x81,
  0x03, 0x45, 0x0e, 0xd5, 0xba, 0xfb, 0x33, 0x63, 0xc4, 0xe2, 0xbf, 0x19,
  0x5b, 0xa9, 0x08, 0xb2, 0xd7, 0xb3, 0x66, 0x1a, 0xf9, 0xd4, 0x57, 0x0d,
  0x45, 0xe5, 0x51, 0xa9, 0x0b, 0x0e, 0x7a, 0x11, 0xde, 0xae, 0x50, 0xe1,
  0x1c, 0xdc, 0xa8, 0x0d, 0x53, 0xb8, 0x9c, 0x9f, 0xec, 0xea, 0x9c, 0x8e,
  0xb8, 0xc2, 0xcc, 0x66, 0xfa, 0xc7, 0x26, 0xa1, 0x58, 0x5f, 0xcc, 0xcb,
  0x04, 0x04, 0x92, 0x3b, 0xd6, 0xfc, 0xff, 0xff, 0x04, 0x00, 0x00, 0x00,
  0x10, 0x00, 0x00, 0x00, 0x7d, 0x7d, 0x72, 0xa3, 0x80, 0x44, 0x6e, 0x7a,
  0x71, 0x7e, 0x7f, 0x2a, 0x7d, 0x32, 0x72, 0x46, 0xf2, 0xfc, 0xff, 0xff,
  0x04, 0x00, 0x00, 0x00, 0x10, 0x00, 0x00, 0x00, 0x77, 0x79, 0x14, 0xa5,
  0x93, 0xe8, 0x16, 0x6f, 0xd8, 0x7f, 0x7c, 0x14, 0x75, 0xfd, 0xf5, 0x39,
  0x0e, 0xfd, 0xff, 0xff, 0x04, 0x00, 0x00, 0x00, 0x40, 0x00, 0x00, 0x00,
  0x5f, 0xfb, 0xff, 0xff, 0x69, 0xfd, 0xff, 0xff, 0x92, 0xff, 0xff, 0xff,
  0xaa, 0xf7, 0xff, 0xff, 0x00, 0x00, 0x00, 0x00, 0xae, 0x05, 0x00, 0x00,
  0xb5, 0x02, 0x00, 0x00, 0x67, 0xfb, 0xff, 0xff, 0x74, 0xf9, 0xff, 0xff,
  0xd6, 0x01, 0x00, 0x00, 0x00, 0x00, 0x00, 0x00, 0x67, 0xfd, 0xff, 0xff,
  0xf6, 0xfd, 0xff, 0xff, 0x19, 0x06, 0x00, 0x00, 0xb0, 0xfd, 0xff, 0xff,
  0x4e, 0x05, 0x00, 0x00, 0x5a, 0xfd, 0xff, 0xff, 0x04, 0x00, 0x00, 0x00,
  0xb0, 0x01, 0x00, 0x00, 0xe7, 0x11, 0x91, 0x8e, 0x96, 0xca, 0x92, 0x15,
  0x14, 0x43, 0x66, 0x13, 0xac, 0xa2, 0xa6, 0x7f, 0x7d, 0x3a, 0x1f, 0xdc,
  0xf3, 0xf0, 0x93, 0xc4, 0xf6, 0xf9, 0x94, 0xca, 0x1b, 0xb5, 0x54, 0xd7,
  0xf4, 0x13, 0xba, 0x18, 0x30, 0x97, 0xdb, 0x96, 0xfb, 0xf5, 0x1d, 0x3a,
  0x65, 0x02, 0x1f, 0xac, 0xac, 0x96, 0xf7, 0x81, 0x15, 0x1f, 0x25, 0x4a,
  0xaa, 0x66, 0xa2, 0x57, 0xe9, 0x84, 0xc4, 0xbb, 0x6d, 0xd4, 0x44, 0xdf,
  0x05, 0x81, 0xec, 0x24, 0x37, 0x56, 0x71, 0x8b, 0xbc, 0xca, 0x6f, 0xc5,
  0xeb, 0x48, 0x95, 0x64, 0xd5, 0x6e, 0xbd, 0x35, 0x15, 0x2d, 0x22, 0x4a,
  0x48, 0x5c, 0xc6, 0xe9, 0x53, 0x26, 0x13, 0xa7, 0x6e, 0xac, 0x81, 0x43,
  0x95, 0x0e, 0x59, 0x25, 0xc7, 0xb1, 0x1f, 0xf9, 0x7c, 0x6b, 0x6e, 0x66,
  0x5b, 0x3b, 0xd5, 0xf7, 0x42, 0x44, 0x4f, 0x79, 0x5f, 0x7f, 0x6c, 0x2a,
  0xce, 0x3b, 0x1d, 0x1c, 0x8c, 0xcb, 0xa1, 0xad, 0x4d, 0x71, 0x42, 0x81,
  0x49, 0x63, 0x08, 0xae, 0x0c, 0xa2, 0x52, 0xf0, 0x2e, 0x94, 0xfb, 0xf3,
  0x04, 0x4c, 0x4a, 0x70, 0x57, 0x85, 0xed, 0xbb, 0xa9, 0xa3, 0x09, 0xc6,
  0xf2, 0xcd, 0x12, 0x56, 0xcf, 0x81, 0x96, 0xf4, 0xd4, 0xba, 0xfe, 0xb6,
  0xde, 0x66, 0xd3, 0xff, 0x4a, 0xa8, 0xe7, 0x12, 0x1b, 0x59, 0x1a, 0x70,
  0x51, 0x77, 0x8d, 0xca, 0xb5, 0x8b, 0xd1, 0xe1, 0x96, 0xe4, 0xdf, 0x0e,
  0xf2, 0x24, 0x14, 0x20, 0xb1, 0x43, 0x61, 0xd7, 0x1f, 0x41, 0x13, 0x47,
  0xf3, 0xce, 0xd0, 0x81, 0xcf, 0x92, 0x5e, 0x87, 0x97, 0x04, 0x8b, 0x75,
  0x81, 0xd6, 0x15, 0x30, 0xbc, 0xcb, 0x45, 0xfc, 0x21, 0x6c, 0x54, 0x64,
  0xba, 0xd6, 0x63, 0xd1, 0x75, 0x4c, 0xb9, 0x6f, 0x97, 0x5b, 0x81, 0xf7,
  0xf8, 0xbb, 0xe4, 0x3a, 0x98, 0xac, 0xe6, 0x26, 0xcb, 0x12, 0xb2, 0xb6,
  0x95, 0x5f, 0x98, 0x4c, 0x1b, 0xcc, 0x6f, 0x82, 0x76, 0xcc, 0xb4, 0x90,
  0x21, 0xa0, 0x6e, 0xe4, 0x81, 0x52, 0x64, 0xea, 0xc6, 0x36, 0xa3, 0x83,
  0x29, 0xd2, 0x95, 0x19, 0xc4, 0x84, 0x5e, 0xa8, 0x99, 0xc5, 0xa5, 0xe1,
  0x71, 0x81, 0x5d, 0x1a, 0xc0, 0x89, 0x22, 0x93, 0x6d, 0x66, 0xe7, 0xa4,
  0x19, 0xf5, 0x47, 0x6e, 0xc0, 0x93, 0x58, 0x3b, 0x50, 0x40, 0x95, 0x67,
  0x98, 0x32, 0xd6, 0xf2, 0x96, 0x1f, 0x2e, 0xfc, 0xa5, 0xbd, 0x4f, 0xe4,
  0xcf, 0xdb, 0x71, 0xb3, 0xf2, 0x33, 0xd8, 0x03, 0x21, 0x4c, 0x2e, 0xea,
  0xd4, 0xc8, 0x96, 0x2f, 0x81, 0x64, 0x53, 0xa3, 0xf4, 0x39, 0x4a, 0x83,
  0x38, 0xd3, 0xee, 0x7f, 0x95, 0x28, 0x63, 0x1c, 0x6c, 0x9c, 0xe2, 0x14,
  0xf3, 0xed, 0xa0, 0xad, 0x75, 0x13, 0x13, 0x1b, 0xd9, 0xf4, 0x8f, 0xf0,
  0x6a, 0xa6, 0x16, 0x67, 0x9e, 0x02, 0x45, 0x2e, 0x0f, 0x77, 0xb6, 0x0d,
  0xb4, 0x72, 0x59, 0x0e, 0xf7, 0x55, 0x81, 0xff, 0xb7, 0xd3, 0xc2, 0xc6,
  0xa7, 0x0c, 0x37, 0x3f, 0xba, 0xa8, 0xa6, 0x1b, 0x7a, 0x81, 0xf9, 0x7d,
  0xae, 0xc7, 0x43, 0x14, 0x31, 0xca, 0xf8, 0xb1, 0x63, 0xc1, 0x90, 0x09,
  0x52, 0xc8, 0x6d, 0x26, 0x16, 0xff, 0xff, 0xff, 0x04, 0x00, 0x00, 0x00,
  0x08, 0x00, 0x00, 0x00, 0xff, 0xff, 0xff, 0xff, 0x88, 0x01, 0x00, 0x00,
  0x6c, 0xe5, 0xff, 0xff, 0x70, 0xe5, 0xff, 0xff, 0x0f, 0x00, 0x00, 0x00,
  0x4d, 0x4c, 0x49, 0x52, 0x20, 0x43, 0x6f, 0x6e, 0x76, 0x65, 0x72, 0x74,
  0x65, 0x64, 0x2e, 0x00, 0x01, 0x00, 0x00, 0x00, 0x14, 0x00, 0x00, 0x00,
  0x00, 0x00, 0x0e, 0x00, 0x18, 0x00, 0x14, 0x00, 0x10, 0x00, 0x0c, 0x00,
  0x08, 0x00, 0x04, 0x00, 0x0e, 0x00, 0x00, 0x00, 0x14, 0x00, 0x00, 0x00,
  0x1c, 0x00, 0x00, 0x00, 0xe4, 0x03, 0x00, 0x00, 0xe8, 0x03, 0x00, 0x00,
  0xec, 0x03, 0x00, 0x00, 0x04, 0x00, 0x00, 0x00, 0x6d, 0x61, 0x69, 0x6e,
  0x00, 0x00, 0x00, 0x00, 0x10, 0x00, 0x00, 0x00, 0xac, 0x03, 0x00, 0x00,
  0x50, 0x03, 0x00, 0x00, 0x0c, 0x03, 0x00, 0x00, 0xd8, 0x02, 0x00, 0x00,
  0x84, 0x02, 0x00, 0x00, 0x40, 0x02, 0x00, 0x00, 0x0c, 0x02, 0x00, 0x00,
  0xd8, 0x01, 0x00, 0x00, 0x94, 0x01, 0x00, 0x00, 0x50, 0x01, 0x00, 0x00,
  0x28, 0x01, 0x00, 0x00, 0xd8, 0x00, 0x00, 0x00, 0x9c, 0x00, 0x00, 0x00,
  0x64, 0x00, 0x00, 0x00, 0x28, 0x00, 0x00, 0x00, 0x04, 0x00, 0x00, 0x00,
  0xfa, 0xfe, 0xff, 0xff, 0x0c, 0x00, 0x00, 0x00, 0x10, 0x00, 0x00, 0x00,
  0x08, 0x00, 0x00, 0x00, 0x01, 0x00, 0x00, 0x00, 0x21, 0x00, 0x00, 0x00,
  0x01, 0x00, 0x00, 0x00, 0x20, 0x00, 0x00, 0x00, 0x1a, 0xfd, 0xff, 0xff,
  0x1c, 0x00, 0x00, 0x00, 0x00, 0x00, 0x00, 0x09, 0x1c, 0x00, 0x00, 0x00,
  0x20, 0x00, 0x00, 0x00, 0x07, 0x00, 0x00, 0x00, 0x00, 0x00, 0x06, 0x00,
  0x08, 0x00, 0x04, 0x00, 0x06, 0x00, 0x00, 0x00, 0x00, 0x00, 0x80, 0x3f,
  0x01, 0x00, 0x00, 0x00, 0x20, 0x00, 0x00, 0x00, 0x01, 0x00, 0x00, 0x00,
  0x1f, 0x00, 0x00, 0x00, 0x52, 0xfd, 0xff, 0xff, 0x14, 0x00, 0x00, 0x00,
  0x00, 0x00, 0x00, 0x08, 0x10, 0x00, 0x00, 0x00, 0x14, 0x00, 0x00, 0x00,
  0x06, 0x00, 0x00, 0x00, 0x78, 0xe6, 0xff, 0xff, 0x01, 0x00, 0x00, 0x00,
  0x1f, 0x00, 0x00, 0x00, 0x03, 0x00, 0x00, 0x00, 0x1e, 0x00, 0x00, 0x00,
  0x10, 0x00, 0x00, 0x00, 0x11, 0x00, 0x00, 0x00, 0x86, 0xfd, 0xff, 0xff,
  0x14, 0x00, 0x00, 0x00, 0x00, 0x00, 0x00, 0x08, 0x14, 0x00, 0x00, 0x00,
  0x18, 0x00, 0x00, 0x00, 0x06, 0x00, 0x00, 0x00, 0xc6, 0xff, 0xff, 0xff,
  0x00, 0x00, 0x00, 0x01, 0x01, 0x00, 0x00, 0x00, 0x1e, 0x00, 0x00, 0x00,
  0x03, 0x00, 0x00, 0x00, 0x1d, 0x00, 0x00, 0x00, 0x0e, 0x00, 0x00, 0x00,
  0x0f, 0x00, 0x00, 0x00, 0xbe, 0xfd, 0xff, 0xff, 0x1c, 0x00, 0x00, 0x00,
  0x00, 0x00, 0x00, 0x08, 0x1c, 0x00, 0x00, 0x00, 0x20, 0x00, 0x00, 0x00,
  0x06, 0x00, 0x00, 0x00, 0x00, 0x00, 0x06, 0x00, 0x08, 0x00, 0x07, 0x00,
  0x06, 0x00, 0x00, 0x00, 0x00, 0x00, 0x00, 0x01, 0x01, 0x00, 0x00, 0x00,
  0x1d, 0x00, 0x00, 0x00, 0x03, 0x00, 0x00, 0x00, 0x1c, 0x00, 0x00, 0x00,
  0x0c, 0x00, 0x00, 0x00, 0x0d, 0x00, 0x00, 0x00, 0x00, 0x00, 0x0a, 0x00,
  0x10, 0x00, 0x0c, 0x00, 0x08, 0x00, 0x04, 0x00, 0x0a, 0x00, 0x00, 0x00,
  0x0c, 0x00, 0x00, 0x00, 0x10, 0x00, 0x00, 0x00, 0x05, 0x00, 0x00, 0x00,
  0x01, 0x00, 0x00, 0x00, 0x1c, 0x00, 0x00, 0x00, 0x02, 0x00, 0x00, 0x00,
  0x1b, 0x00, 0x00, 0x00, 0x01, 0x00, 0x00, 0x00, 0x2e, 0xfe, 0xff, 0xff,
  0x14, 0x00, 0x00, 0x00, 0x00, 0x00, 0x00, 0x01, 0x1c, 0x00, 0x00, 0x00,
  0x20, 0x00, 0x00, 0x00, 0x01, 0x00, 0x00, 0x00, 0x20, 0xfe, 0xff, 0xff,
  0x00, 0x00, 0x00, 0x01, 0x01, 0x00, 0x00, 0x00, 0x01, 0x00, 0x00, 0x00,
  0x01, 0x00, 0x00, 0x00, 0x1b, 0x00, 0x00, 0x00, 0x03, 0x00, 0x00, 0x00,
  0x1a, 0x00, 0x00, 0x00, 0x0a, 0x00, 0x00, 0x00, 0x0b, 0x00, 0x00, 0x00,
  0x6e, 0xfe, 0xff, 0xff, 0x14, 0x00, 0x00, 0x00, 0x00, 0x00, 0x00, 0x05,
  0x24, 0x00, 0x00, 0x00, 0x28, 0x00, 0x00, 0x00, 0x04, 0x00, 0x00, 0x00,
  0x1e, 0xff, 0xff, 0xff, 0x02, 0x00, 0x00, 0x00, 0x02, 0x00, 0x00, 0x00,
  0x02, 0x00, 0x00, 0x00, 0x02, 0x00, 0x00, 0x00, 0x00, 0x00, 0x00, 0x01,
  0x01, 0x00, 0x00, 0x00, 0x1a, 0x00, 0x00, 0x00, 0x01, 0x00, 0x00, 0x00,
  0x19, 0x00, 0x00, 0x00, 0xae, 0xfe, 0xff, 0xff, 0x14, 0x00, 0x00, 0x00,
  0x00, 0x00, 0x00, 0x0b, 0x10, 0x00, 0x00, 0x00, 0x14, 0x00, 0x00, 0x00,
  0x03, 0x00, 0x00, 0x00, 0xd4, 0xe7, 0xff, 0xff, 0x01, 0x00, 0x00, 0x00,
  0x19, 0x00, 0x00, 0x00, 0x02, 0x00, 0x00, 0x00, 0x18, 0x00, 0x00, 0x00,
  0x09, 0x00, 0x00, 0x00, 0xde, 0xfe, 0xff, 0xff, 0x14, 0x00, 0x00, 0x00,
  0x00, 0x00, 0x00, 0x15, 0x10, 0x00, 0x00, 0x00, 0x14, 0x00, 0x00, 0x00,
  0x02, 0x00, 0x00, 0x00, 0x04, 0xe8, 0xff, 0xff, 0x01, 0x00, 0x00, 0x00,
  0x18, 0x00, 0x00, 0x00, 0x02, 0x00, 0x00, 0x00, 0x17, 0x00, 0x00, 0x00,
  0x08, 0x00, 0x00, 0x00, 0x0e, 0xff, 0xff, 0xff, 0x14, 0x00, 0x00, 0x00,
  0x00, 0x00, 0x00, 0x01, 0x1c, 0x00, 0x00, 0x00, 0x20, 0x00, 0x00, 0x00,
  0x01, 0x00, 0x00, 0x00, 0x00, 0xff, 0xff, 0xff, 0x00, 0x00, 0x00, 0x01,
  0x01, 0x00, 0x00, 0x00, 0x01, 0x00, 0x00, 0x00, 0x01, 0x00, 0x00, 0x00,
  0x17, 0x00, 0x00, 0x00, 0x03, 0x00, 0x00, 0x00, 0x16, 0x00, 0x00, 0x00,
  0x06, 0x00, 0x00, 0x00, 0x07, 0x00, 0x00, 0x00, 0x4e, 0xff, 0xff, 0xff,
  0x24, 0x00, 0x00, 0x00, 0x00, 0x00, 0x00, 0x05, 0x34, 0x00, 0x00, 0x00,
  0x38, 0x00, 0x00, 0x00, 0x04, 0x00, 0x00, 0x00, 0x00, 0x00, 0x0e, 0x00,
  0x18, 0x00, 0x17, 0x00, 0x10, 0x00, 0x0c, 0x00, 0x08, 0x00, 0x04, 0x00,
  0x0e, 0x00, 0x00, 0x00, 0x02, 0x00, 0x00, 0x00, 0x02, 0x00, 0x00, 0x00,
  0x02, 0x00, 0x00, 0x00, 0x02, 0x00, 0x00, 0x00, 0x00, 0x00, 0x00, 0x01,
  0x01, 0x00, 0x00, 0x00, 0x16, 0x00, 0x00, 0x00, 0x01, 0x00, 0x00, 0x00,
  0x15, 0x00, 0x00, 0x00, 0x9e, 0xff, 0xff, 0xff, 0x14, 0x00, 0x00, 0x00,
  0x00, 0x00, 0x00, 0x0b, 0x10, 0x00, 0x00, 0x00, 0x14, 0x00, 0x00, 0x00,
  0x03, 0x00, 0x00, 0x00, 0xc4, 0xe8, 0xff, 0xff, 0x01, 0x00, 0x00, 0x00,
  0x15, 0x00, 0x00, 0x00, 0x02, 0x00, 0x00, 0x00, 0x14, 0x00, 0x00, 0x00,
  0x05, 0x00, 0x00, 0x00, 0xce, 0xff, 0xff, 0xff, 0x14, 0x00, 0x00, 0x00,
  0x00, 0x00, 0x00, 0x15, 0x10, 0x00, 0x00, 0x00, 0x14, 0x00, 0x00, 0x00,
  0x02, 0x00, 0x00, 0x00, 0xf4, 0xe8, 0xff, 0xff, 0x01, 0x00, 0x00, 0x00,
  0x14, 0x00, 0x00, 0x00, 0x02, 0x00, 0x00, 0x00, 0x13, 0x00, 0x00, 0x00,
  0x04, 0x00, 0x00, 0x00, 0x00, 0x00, 0x0e, 0x00, 0x18, 0x00, 0x14, 0x00,
  0x10, 0x00, 0x0c, 0x00, 0x0b, 0x00, 0x04, 0x00, 0x0e, 0x00, 0x00, 0x00,
  0x20, 0x00, 0x00, 0x00, 0x00, 0x00, 0x00, 0x01, 0x28, 0x00, 0x00, 0x00,
  0x2c, 0x00, 0x00, 0x00, 0x01, 0x00, 0x00, 0x00, 0x0c, 0x00, 0x10, 0x00,
  0x00, 0x00, 0x0c, 0x00, 0x08, 0x00, 0x07, 0x00, 0x0c, 0x00, 0x00, 0x00,
  0x00, 0x00, 0x00, 0x01, 0x01, 0x00, 0x00, 0x00, 0x01, 0x00, 0x00, 0x00,
  0x01, 0x00, 0x00, 0x00, 0x13, 0x00, 0x00, 0x00, 0x03, 0x00, 0x00, 0x00,
  0x12, 0x00, 0x00, 0x00, 0x02, 0x00, 0x00, 0x00, 0x03, 0x00, 0x00, 0x00,
  0x00, 0x00, 0x0a, 0x00, 0x0c, 0x00, 0x00, 0x00, 0x08, 0x00, 0x04, 0x00,
  0x0a, 0x00, 0x00, 0x00, 0x08, 0x00, 0x00, 0x00, 0x0c, 0x00, 0x00, 0x00,
  0x01, 0x00, 0x00, 0x00, 0x12, 0x00, 0x00, 0x00, 0x01, 0x00, 0x00, 0x00,
  0x00, 0x00, 0x00, 0x00, 0x01, 0x00, 0x00, 0x00, 0x21, 0x00, 0x00, 0x00,
  0x01, 0x00, 0x00, 0x00, 0x00, 0x00, 0x00, 0x00, 0x22, 0x00, 0x00, 0x00,
  0x30, 0x16, 0x00, 0x00, 0xd0, 0x15, 0x00, 0x00, 0x88, 0x14, 0x00, 0x00,
  0x58, 0x13, 0x00, 0x00, 0xd4, 0x12, 0x00, 0x00, 0x50, 0x12, 0x00, 0x00,
  0x24, 0x11, 0x00, 0x00, 0xf8, 0x0f, 0x00, 0x00, 0x74, 0x0f, 0x00, 0x00,
  0xf0, 0x0e, 0x00, 0x00, 0x24, 0x0e, 0x00, 0x00, 0x58, 0x0d, 0x00, 0x00,
  0xec, 0x0c, 0x00, 0x00, 0x70, 0x0c, 0x00, 0x00, 0x04, 0x0c, 0x00, 0x00,
  0x88, 0x0b, 0x00, 0x00, 0x1c, 0x0b, 0x00, 0x00, 0xa0, 0x0a, 0x00, 0x00,
  0x24, 0x0a, 0x00, 0x00, 0xf8, 0x08, 0x00, 0x00, 0x54, 0x08, 0x00, 0x00,
  0xb0, 0x07, 0x00, 0x00, 0x1c, 0x07, 0x00, 0x00, 0x28, 0x06, 0x00, 0x00,
  0x84, 0x05, 0x00, 0x00, 0xe0, 0x04, 0x00, 0x00, 0x4c, 0x04, 0x00, 0x00,
  0x58, 0x03, 0x00, 0x00, 0xdc, 0x02, 0x00, 0x00, 0x28, 0x02, 0x00, 0x00,
  0x74, 0x01, 0x00, 0x00, 0xd8, 0x00, 0x00, 0x00, 0x5c, 0x00, 0x00, 0x00,
  0x04, 0x00, 0x00, 0x00, 0x6c, 0xea, 0xff, 0xff, 0x14, 0x00, 0x00, 0x00,
  0x1c, 0x00, 0x00, 0x00, 0x1c, 0x00, 0x00, 0x00, 0x22, 0x00, 0x00, 0x00,
  0x34, 0x00, 0x00, 0x00, 0x02, 0x00, 0x00, 0x00, 0xff, 0xff, 0xff, 0xff,
  0x03, 0x00, 0x00, 0x00, 0x50, 0xea, 0xff, 0xff, 0x19, 0x00, 0x00, 0x00,
  0x53, 0x74, 0x61, 0x74, 0x65, 0x66, 0x75, 0x6c, 0x50, 0x61, 0x72, 0x74,
  0x69, 0x74, 0x69, 0x6f, 0x6e, 0x65, 0x64, 0x43, 0x61, 0x6c, 0x6c, 0x3a,
  0x30, 0x00, 0x00, 0x00, 0x02, 0x00, 0x00, 0x00, 0x01, 0x00, 0x00, 0x00,
  0x03, 0x00, 0x00, 0x00, 0x84, 0xf6, 0xff, 0xff, 0x18, 0x00, 0x00, 0x00,
  0x20, 0x00, 0x00, 0x00, 0x40, 0x00, 0x00, 0x00, 0x21, 0x00, 0x00, 0x00,
  0x00, 0x00, 0x00, 0x09, 0x54, 0x00, 0x00, 0x00, 0x02, 0x00, 0x00, 0x00,
  0xff, 0xff, 0xff, 0xff, 0x03, 0x00, 0x00, 0x00, 0x5c, 0xec, 0xff, 0xff,
  0x08, 0x00, 0x00, 0x00, 0x14, 0x00, 0x00, 0x00, 0x01, 0x00, 0x00, 0x00,
  0x80, 0xff, 0xff, 0xff, 0xff, 0xff, 0xff, 0xff, 0x00, 0x00, 0x00, 0x00,
  0x01, 0x00, 0x00, 0x00, 0x00, 0x00, 0x80, 0x3b, 0x1a, 0x00, 0x00, 0x00,
  0x53, 0x74, 0x61, 0x74, 0x65, 0x66, 0x75, 0x6c, 0x50, 0x61, 0x72, 0x74,
  0x69, 0x74, 0x69, 0x6f, 0x6e, 0x65, 0x64, 0x43, 0x61, 0x6c, 0x6c, 0x3a,
  0x30, 0x31, 0x00, 0x00, 0x02, 0x00, 0x00, 0x00, 0x01, 0x00, 0x00, 0x00,
  0x03, 0x00, 0x00, 0x00, 0xfc, 0xf6, 0xff, 0xff, 0x18, 0x00, 0x00, 0x00,
  0x20, 0x00, 0x00, 0x00, 0x40, 0x00, 0x00, 0x00, 0x20, 0x00, 0x00, 0x00,
  0x00, 0x00, 0x00, 0x09, 0x74, 0x00, 0x00, 0x00, 0x02, 0x00, 0x00, 0x00,
  0xff, 0xff, 0xff, 0xff, 0x03, 0x00, 0x00, 0x00, 0xd4, 0xec, 0xff, 0xff,
  0x08, 0x00, 0x00, 0x00, 0x14, 0x00, 0x00, 0x00, 0x01, 0x00, 0x00, 0x00,
  0xfc, 0xff, 0xff, 0xff, 0xff, 0xff, 0xff, 0xff, 0x00, 0x00, 0x00, 0x00,
  0x01, 0x00, 0x00, 0x00, 0x68, 0xb0, 0x8b, 0x3d, 0x3a, 0x00, 0x00, 0x00,
  0x73, 0x65, 0x71, 0x75, 0x65, 0x6e, 0x74, 0x69, 0x61, 0x6c, 0x5f, 0x35,
  0x2f, 0x64, 0x65, 0x6e, 0x73, 0x65, 0x5f, 0x31, 0x37, 0x2f, 0x4d, 0x61,
  0x74, 0x4d, 0x75, 0x6c, 0x3b, 0x73, 0x65, 0x71, 0x75, 0x65, 0x6e, 0x74,
  0x69, 0x61, 0x6c, 0x5f, 0x35, 0x2f, 0x64, 0x65, 0x6e, 0x73, 0x65, 0x5f,
  0x31, 0x37, 0x2f, 0x42, 0x69, 0x61, 0x73, 0x41, 0x64, 0x64, 0x00, 0x00,
  0x02, 0x00, 0x00, 0x00, 0x01, 0x00, 0x00, 0x00, 0x03, 0x00, 0x00, 0x00,
  0x94, 0xf7, 0xff, 0xff, 0x18, 0x00, 0x00, 0x00, 0x20, 0x00, 0x00, 0x00,
  0x3c, 0x00, 0x00, 0x00, 0x1f, 0x00, 0x00, 0x00, 0x00, 0x00, 0x00, 0x09,
  0x8c, 0x00, 0x00, 0x00, 0x02, 0x00, 0x00, 0x00, 0xff, 0xff, 0xff, 0xff,
  0x08, 0x00, 0x00, 0x00, 0x6c, 0xed, 0xff, 0xff, 0x08, 0x00, 0x00, 0x00,
  0x10, 0x00, 0x00, 0x00, 0x01, 0x00, 0x00, 0x00, 0x80, 0xff, 0xff, 0xff,
  0xff, 0xff, 0xff, 0xff, 0x01, 0x00, 0x00, 0x00, 0x9b, 0xa7, 0x2c, 0x3d,
  0x55, 0x00, 0x00, 0x00, 0x73, 0x65, 0x71, 0x75, 0x65, 0x6e, 0x74, 0x69,
  0x61, 0x6c, 0x5f, 0x35, 0x2f, 0x64, 0x65, 0x6e, 0x73, 0x65, 0x5f, 0x31,
  0x36, 0x2f, 0x4d, 0x61, 0x74, 0x4d, 0x75, 0x6c, 0x3b, 0x73, 0x65, 0x71,
  0x75, 0x65, 0x6e, 0x74, 0x69, 0x61, 0x6c, 0x5f, 0x35, 0x2f, 0x64, 0x65,
  0x6e, 0x73, 0x65, 0x5f, 0x31, 0x36, 0x2f, 0x52, 0x65, 0x6c, 0x75, 0x3b,
  0x73, 0x65, 0x71, 0x75, 0x65, 0x6e, 0x74, 0x69, 0x61, 0x6c, 0x5f, 0x35,
  0x2f, 0x64, 0x65, 0x6e, 0x73, 0x65, 0x5f, 0x31, 0x36, 0x2f, 0x42, 0x69,
  0x61, 0x73, 0x41, 0x64, 0x64, 0x00, 0x00, 0x00, 0x02, 0x00, 0x00, 0x00,
  0x01, 0x00, 0x00, 0x00, 0x08, 0x00, 0x00, 0x00, 0x44, 0xf8, 0xff, 0xff,
  0x18, 0x00, 0x00, 0x00, 0x20, 0x00, 0x00, 0x00, 0x3c, 0x00, 0x00, 0x00,
  0x1e, 0x00, 0x00, 0x00, 0x00, 0x00, 0x00, 0x09, 0x8c, 0x00, 0x00, 0x00,
  0x02, 0x00, 0x00, 0x00, 0xff, 0xff, 0xff, 0xff, 0x10, 0x00, 0x00, 0x00,
  0x1c, 0xee, 0xff, 0xff, 0x08, 0x00, 0x00, 0x00, 0x10, 0x00, 0x00, 0x00,
  0x01, 0x00, 0x00, 0x00, 0x80, 0xff, 0xff, 0xff, 0xff, 0xff, 0xff, 0xff,
  0x01, 0x00, 0x00, 0x00, 0xff, 0x8b, 0x4d, 0x3d, 0x55, 0x00, 0x00, 0x00,
  0x73, 0x65, 0x71, 0x75, 0x65, 0x6e, 0x74, 0x69, 0x61, 0x6c, 0x5f, 0x35,
  0x2f, 0x64, 0x65, 0x6e, 0x73, 0x65, 0x5f, 0x31, 0x35, 0x2f, 0x4d, 0x61,
  0x74, 0x4d, 0x75, 0x6c, 0x3b, 0x73, 0x65, 0x71, 0x75, 0x65, 0x6e, 0x74,
  0x69, 0x61, 0x6c, 0x5f, 0x35, 0x2f, 0x64, 0x65, 0x6e, 0x73, 0x65, 0x5f,
  0x31, 0x35, 0x2f, 0x52, 0x65, 0x6c, 0x75, 0x3b, 0x73, 0x65, 0x71, 0x75,
  0x65, 0x6e, 0x74, 0x69, 0x61, 0x6c, 0x5f, 0x35, 0x2f, 0x64, 0x65, 0x6e,
  0x73, 0x65, 0x5f, 0x31, 0x35, 0x2f, 0x42, 0x69, 0x61, 0x73, 0x41, 0x64,
  0x64, 0x00, 0x00, 0x00, 0x02, 0x00, 0x00, 0x00, 0x01, 0x00, 0x00, 0x00,
  0x10, 0x00, 0x00, 0x00, 0xf4, 0xf8, 0xff, 0xff, 0x18, 0x00, 0x00, 0x00,
  0x20, 0x00, 0x00, 0x00, 0x3c, 0x00, 0x00, 0x00, 0x1d, 0x00, 0x00, 0x00,
  0x00, 0x00, 0x00, 0x09, 0x54, 0x00, 0x00, 0x00, 0x02, 0x00, 0x00, 0x00,
  0xff, 0xff, 0xff, 0xff, 0x88, 0x01, 0x00, 0x00, 0xcc, 0xee, 0xff, 0xff,
  0x08, 0x00, 0x00, 0x00, 0x10, 0x00, 0x00, 0x00, 0x01, 0x00, 0x00, 0x00,
  0x80, 0xff, 0xff, 0xff, 0xff, 0xff, 0xff, 0xff, 0x01, 0x00, 0x00, 0x00,
  0x1e, 0xf9, 0xcd, 0x3c, 0x1e, 0x00, 0x00, 0x00, 0x73, 0x65, 0x71, 0x75,
  0x65, 0x6e, 0x74, 0x69, 0x61, 0x6c, 0x5f, 0x35, 0x2f, 0x66, 0x6c, 0x61,
  0x74, 0x74, 0x65, 0x6e, 0x5f, 0x35, 0x2f, 0x52, 0x65, 0x73, 0x68, 0x61,
  0x70, 0x65, 0x00, 0x00, 0x02, 0x00, 0x00, 0x00, 0x01, 0x00, 0x00, 0x00,
  0x88, 0x01, 0x00, 0x00, 0x6c, 0xf9, 0xff, 0xff, 0x18, 0x00, 0x00, 0x00,
  0x28, 0x00, 0x00, 0x00, 0x44, 0x00, 0x00, 0x00, 0x1c, 0x00, 0x00, 0x00,
  0x00, 0x00, 0x00, 0x09, 0xc4, 0x00, 0x00, 0x00, 0x04, 0x00, 0x00, 0x00,
  0xff, 0xff, 0xff, 0xff, 0x07, 0x00, 0x00, 0x00, 0x07, 0x00, 0x00, 0x00,
  0x08, 0x00, 0x00, 0x00, 0x4c, 0xef, 0xff, 0xff, 0x08, 0x00, 0x00, 0x00,
  0x10, 0x00, 0x00, 0x00, 0x01, 0x00, 0x00, 0x00, 0x80, 0xff, 0xff, 0xff,
  0xff, 0xff, 0xff, 0xff, 0x01, 0x00, 0x00, 0x00, 0x1e, 0xf9, 0xcd, 0x3c,
  0x86, 0x00, 0x00, 0x00, 0x73, 0x65, 0x71, 0x75, 0x65, 0x6e, 0x74, 0x69,
  0x61, 0x6c, 0x5f, 0x35, 0x2f, 0x63, 0x6f, 0x6e, 0x76, 0x32, 0x64, 0x5f,
  0x31, 0x37, 0x2f, 0x52, 0x65, 0x6c, 0x75, 0x3b, 0x73, 0x65, 0x71, 0x75,
  0x65, 0x6e, 0x74, 0x69, 0x61, 0x6c, 0x5f, 0x35, 0x2f, 0x63, 0x6f, 0x6e,
  0x76, 0x32, 0x64, 0x5f, 0x31, 0x37, 0x2f, 0x42, 0x69, 0x61, 0x73, 0x41,
  0x64, 0x64, 0x3b, 0x73, 0x65, 0x71, 0x75, 0x65, 0x6e, 0x74, 0x69, 0x61,
  0x6c, 0x5f, 0x35, 0x2f, 0x63, 0x6f, 0x6e, 0x76, 0x32, 0x64, 0x5f, 0x31,
  0x37, 0x2f, 0x43, 0x6f, 0x6e, 0x76, 0x32, 0x44, 0x3b, 0x73, 0x65, 0x71,
  0x75, 0x65, 0x6e, 0x74, 0x69, 0x61, 0x6c, 0x5f, 0x35, 0x2f, 0x63, 0x6f,
  0x6e, 0x76, 0x32, 0x64, 0x5f, 0x31, 0x37, 0x2f, 0x42, 0x69, 0x61, 0x73,
  0x41, 0x64, 0x64, 0x2f, 0x52, 0x65, 0x61, 0x64, 0x56, 0x61, 0x72, 0x69,
  0x61, 0x62, 0x6c, 0x65, 0x4f, 0x70, 0x00, 0x00, 0x04, 0x00, 0x00, 0x00,
  0x01, 0x00, 0x00, 0x00, 0x07, 0x00, 0x00, 0x00, 0x07, 0x00, 0x00, 0x00,
  0x08, 0x00, 0x00, 0x00, 0x5c, 0xfa, 0xff, 0xff, 0x18, 0x00, 0x00, 0x00,
  0x28, 0x00, 0x00, 0x00, 0x44, 0x00, 0x00, 0x00, 0x1b, 0x00, 0x00, 0x00,
  0x00, 0x00, 0x00, 0x09, 0x64, 0x00, 0x00, 0x00, 0x04, 0x00, 0x00, 0x00,
  0xff, 0xff, 0xff, 0xff, 0x07, 0x00, 0x00, 0x00, 0x07, 0x00, 0x00, 0x00,
  0x10, 0x00, 0x00, 0x00, 0x3c, 0xf0, 0xff, 0xff, 0x08, 0x00, 0x00, 0x00,
  0x10, 0x00, 0x00, 0x00, 0x01, 0x00, 0x00, 0x00, 0x90, 0xff, 0xff, 0xff,
  0xff, 0xff, 0xff, 0xff, 0x01, 0x00, 0x00, 0x00, 0x69, 0xad, 0x46, 0x3d,
  0x25, 0x00, 0x00, 0x00, 0x73, 0x65, 0x71, 0x75, 0x65, 0x6e, 0x74, 0x69,
  0x61, 0x6c, 0x5f, 0x35, 0x2f, 0x6d, 0x61, 0x78, 0x5f, 0x70, 0x6f, 0x6f,
  0x6c, 0x69, 0x6e, 0x67, 0x32, 0x64, 0x5f, 0x31, 0x31, 0x2f, 0x4d, 0x61,
  0x78, 0x50, 0x6f, 0x6f, 0x6c, 0x00, 0x00, 0x00, 0x04, 0x00, 0x00, 0x00,
  0x01, 0x00, 0x00, 0x00, 0x07, 0x00, 0x00, 0x00, 0x07, 0x00, 0x00, 0x00,
  0x10, 0x00, 0x00, 0x00, 0xec, 0xfa, 0xff, 0xff, 0x18, 0x00, 0x00, 0x00,
  0x28, 0x00, 0x00, 0x00, 0x44, 0x00, 0x00, 0x00, 0x1a, 0x00, 0x00, 0x00,
  0x00, 0x00, 0x00, 0x09, 0x74, 0x00, 0x00, 0x00, 0x04, 0x00, 0x00, 0x00,
  0xff, 0xff, 0xff, 0xff, 0x0f, 0x00, 0x00, 0x00, 0x0f, 0x00, 0x00, 0x00,
  0x10, 0x00, 0x00, 0x00, 0xcc, 0xf0, 0xff, 0xff, 0x08, 0x00, 0x00, 0x00,
  0x10, 0x00, 0x00, 0x00, 0x01, 0x00, 0x00, 0x00, 0x90, 0xff, 0xff, 0xff,
  0xff, 0xff, 0xff, 0xff, 0x01, 0x00, 0x00, 0x00, 0x69, 0xad, 0x46, 0x3d,
  0x35, 0x00, 0x00, 0x00, 0x73, 0x65, 0x71, 0x75, 0x65, 0x6e, 0x74, 0x69,
  0x61, 0x6c, 0x5f, 0x35, 0x2f, 0x62, 0x61, 0x74, 0x63, 0x68, 0x5f, 0x6e,
  0x6f, 0x72, 0x6d, 0x61, 0x6c, 0x69, 0x7a, 0x61, 0x74, 0x69, 0x6f, 0x6e,
  0x5f, 0x31, 0x31, 0x2f, 0x46, 0x75, 0x73, 0x65, 0x64, 0x42, 0x61, 0x74,
  0x63, 0x68, 0x4e, 0x6f, 0x72, 0x6d, 0x56, 0x33, 0x33, 0x00, 0x00, 0x00,
  0x04, 0x00, 0x00, 0x00, 0x01, 0x00, 0x00, 0x00, 0x0f, 0x00, 0x00, 0x00,
  0x0f, 0x00, 0x00, 0x00, 0x10, 0x00, 0x00, 0x00, 0x8c, 0xfb, 0xff, 0xff,
  0x18, 0x00, 0x00, 0x00, 0x28, 0x00, 0x00, 0x00, 0x44, 0x00, 0x00, 0x00,
  0x19, 0x00, 0x00, 0x00, 0x00, 0x00, 0x00, 0x09, 0x74, 0x00, 0x00, 0x00,
  0x04, 0x00, 0x00, 0x00, 0xff, 0xff, 0xff, 0xff, 0x0f, 0x00, 0x00, 0x00,
  0x0f, 0x00, 0x00, 0x00, 0x10, 0x00, 0x00, 0x00, 0x6c, 0xf1, 0xff, 0xff,
  0x08, 0x00, 0x00, 0x00, 0x10, 0x00, 0x00, 0x00, 0x01, 0x00, 0x00, 0x00,
  0x80, 0xff, 0xff, 0xff, 0xff, 0xff, 0xff, 0xff, 0x01, 0x00, 0x00, 0x00,
  0xb5, 0xe9, 0x43, 0x3d, 0x35, 0x00, 0x00, 0x00, 0x73, 0x65, 0x71, 0x75,
  0x65, 0x6e, 0x74, 0x69, 0x61, 0x6c, 0x5f, 0x35, 0x2f, 0x62, 0x61, 0x74,
  0x63, 0x68, 0x5f, 0x6e, 0x6f, 0x72, 0x6d, 0x61, 0x6c, 0x69, 0x7a, 0x61,
  0x74, 0x69, 0x6f, 0x6e, 0x5f, 0x31, 0x31, 0x2f, 0x46, 0x75, 0x73, 0x65,
  0x64, 0x42, 0x61, 0x74, 0x63, 0x68, 0x4e, 0x6f, 0x72, 0x6d, 0x56, 0x33,
  0x32, 0x00, 0x00, 0x00, 0x04, 0x00, 0x00, 0x00, 0x01, 0x00, 0x00, 0x00,
  0x0f, 0x00, 0x00, 0x00, 0x0f, 0x00, 0x00, 0x00, 0x10, 0x00, 0x00, 0x00,
  0x2c, 0xfc, 0xff, 0xff, 0x18, 0x00, 0x00, 0x00, 0x28, 0x00, 0x00, 0x00,
  0x44, 0x00, 0x00, 0x00, 0x18, 0x00, 0x00, 0x00, 0x00, 0x00, 0x00, 0x09,
  0xc4, 0x00, 0x00, 0x00, 0x04, 0x00, 0x00, 0x00, 0xff, 0xff, 0xff, 0xff,
  0x0f, 0x00, 0x00, 0x00, 0x0f, 0x00, 0x00, 0x00, 0x10, 0x00, 0x00, 0x00,
  0x0c, 0xf2, 0xff, 0xff, 0x08, 0x00, 0x00, 0x00, 0x10, 0x00, 0x00, 0x00,
  0x01, 0x00, 0x00, 0x00, 0x80, 0xff, 0xff, 0xff, 0xff, 0xff, 0xff, 0xff,
  0x01, 0x00, 0x00, 0x00, 0x62, 0x41, 0xec, 0x3c, 0x86, 0x00, 0x00, 0x00,
  0x73, 0x65, 0x71, 0x75, 0x65, 0x6e, 0x74, 0x69, 0x61, 0x6c, 0x5f, 0x35,
  0x2f, 0x63, 0x6f, 0x6e, 0x76, 0x32, 0x64, 0x5f, 0x31, 0x36, 0x2f, 0x52,
  0x65, 0x6c, 0x75, 0x3b, 0x73, 0x65, 0x71, 0x75, 0x65, 0x6e, 0x74, 0x69,
  0x61, 0x6c, 0x5f, 0x35, 0x2f, 0x63, 0x6f, 0x6e, 0x76, 0x32, 0x64, 0x5f,
  0x31, 0x36, 0x2f, 0x42, 0x69, 0x61, 0x73, 0x41, 0x64, 0x64, 0x3b, 0x73,
  0x65, 0x71, 0x75, 0x65, 0x6e, 0x74, 0x69, 0x61, 0x6c, 0x5f, 0x35, 0x2f,
  0x63, 0x6f, 0x6e, 0x76, 0x32, 0x64, 0x5f, 0x31, 0x36, 0x2f, 0x43, 0x6f,
  0x6e, 0x76, 0x32, 0x44, 0x3b, 0x73, 0x65, 0x71, 0x75, 0x65, 0x6e, 0x74,
  0x69, 0x61, 0x6c, 0x5f, 0x35, 0x2f, 0x63, 0x6f, 0x6e, 0x76, 0x32, 0x64,
  0x5f, 0x31, 0x36, 0x2f, 0x42, 0x69, 0x61, 0x73, 0x41, 0x64, 0x64, 0x2f,
  0x52, 0x65, 0x61, 0x64, 0x56, 0x61, 0x72, 0x69, 0x61, 0x62, 0x6c, 0x65,
  0x4f, 0x70, 0x00, 0x00, 0x04, 0x00, 0x00, 0x00, 0x01, 0x00, 0x00, 0x00,
  0x0f, 0x00, 0x00, 0x00, 0x0f, 0x00, 0x00, 0x00, 0x10, 0x00, 0x00, 0x00,
  0x1c, 0xfd, 0xff, 0xff, 0x18, 0x00, 0x00, 0x00, 0x28, 0x00, 0x00, 0x00,
  0x44, 0x00, 0x00, 0x00, 0x17, 0x00, 0x00, 0x00, 0x00, 0x00, 0x00, 0x09,
  0x64, 0x00, 0x00, 0x00, 0x04, 0x00, 0x00, 0x00, 0xff, 0xff, 0xff, 0xff,
  0x0f, 0x00, 0x00, 0x00, 0x0f, 0x00, 0x00, 0x00, 0x10, 0x00, 0x00, 0x00,
  0xfc, 0xf2, 0xff, 0xff, 0x08, 0x00, 0x00, 0x00, 0x10, 0x00, 0x00, 0x00,
  0x01, 0x00, 0x00, 0x00, 0xab, 0xff, 0xff, 0xff, 0xff, 0xff, 0xff, 0xff,
  0x01, 0x00, 0x00, 0x00, 0x6a, 0x46, 0x6b, 0x3d, 0x25, 0x00, 0x00, 0x00,
  0x73, 0x65, 0x71, 0x75, 0x65, 0x6e, 0x74, 0x69, 0x61, 0x6c, 0x5f, 0x35,
  0x2f, 0x6d, 0x61, 0x78, 0x5f, 0x70, 0x6f, 0x6f, 0x6c, 0x69, 0x6e, 0x67,
  0x32, 0x64, 0x5f, 0x31, 0x30, 0x2f, 0x4d, 0x61, 0x78, 0x50, 0x6f, 0x6f,
  0x6c, 0x00, 0x00, 0x00, 0x04, 0x00, 0x00, 0x00, 0x01, 0x00, 0x00, 0x00,
  0x0f, 0x00, 0x00, 0x00, 0x0f, 0x00, 0x00, 0x00, 0x10, 0x00, 0x00, 0x00,
  0xac, 0xfd, 0xff, 0xff, 0x18, 0x00, 0x00, 0x00, 0x28, 0x00, 0x00, 0x00,
  0x44, 0x00, 0x00, 0x00, 0x16, 0x00, 0x00, 0x00, 0x00, 0x00, 0x00, 0x09,
  0x74, 0x00, 0x00, 0x00, 0x04, 0x00, 0x00, 0x00, 0xff, 0xff, 0xff, 0xff,
  0x1e, 0x00, 0x00, 0x00, 0x1e, 0x00, 0x00, 0x00, 0x10, 0x00, 0x00, 0x00,
  0x8c, 0xf3, 0xff, 0xff, 0x08, 0x00, 0x00, 0x00, 0x10, 0x00, 0x00, 0x00,
  0x01, 0x00, 0x00, 0x00, 0xab, 0xff, 0xff, 0xff, 0xff, 0xff, 0xff, 0xff,
  0x01, 0x00, 0x00, 0x00, 0x6a, 0x46, 0x6b, 0x3d, 0x35, 0x00, 0x00, 0x00,
  0x73, 0x65, 0x71, 0x75, 0x65, 0x6e, 0x74, 0x69, 0x61, 0x6c, 0x5f, 0x35,
  0x2f, 0x62, 0x61, 0x74, 0x63, 0x68, 0x5f, 0x6e, 0x6f, 0x72, 0x6d, 0x61,
  0x6c, 0x69, 0x7a, 0x61, 0x74, 0x69, 0x6f, 0x6e, 0x5f, 0x31, 0x30, 0x2f,
  0x46, 0x75, 0x73, 0x65, 0x64, 0x42, 0x61, 0x74, 0x63, 0x68, 0x4e, 0x6f,
  0x72, 0x6d, 0x56, 0x33, 0x33, 0x00, 0x00, 0x00, 0x04, 0x00, 0x00, 0x00,
  0x01, 0x00, 0x00, 0x00, 0x1e, 0x00, 0x00, 0x00, 0x1e, 0x00, 0x00, 0x00,
  0x10, 0x00, 0x00, 0x00, 0x4c, 0xfe, 0xff, 0xff, 0x18, 0x00, 0x00, 0x00,
  0x28, 0x00, 0x00, 0x00, 0x44, 0x00, 0x00, 0x00, 0x15, 0x00, 0x00, 0x00,
  0x00, 0x00, 0x00, 0x09, 0x74, 0x00, 0x00, 0x00, 0x04, 0x00, 0x00, 0x00,
  0xff, 0xff, 0xff, 0xff, 0x1e, 0x00, 0x00, 0x00, 0x1e, 0x00, 0x00, 0x00,
  0x10, 0x00, 0x00, 0x00, 0x2c, 0xf4, 0xff, 0xff, 0x08, 0x00, 0x00, 0x00,
  0x10, 0x00, 0x00, 0x00, 0x01, 0x00, 0x00, 0x00, 0x80, 0xff, 0xff, 0xff,
  0xff, 0xff, 0xff, 0xff, 0x01, 0x00, 0x00, 0x00, 0x4f, 0xb9, 0x45, 0x3d,
  0x35, 0x00, 0x00, 0x00, 0x73, 0x65, 0x71, 0x75, 0x65, 0x6e, 0x74, 0x69,
  0x61, 0x6c, 0x5f, 0x35, 0x2f, 0x62, 0x61, 0x74, 0x63, 0x68, 0x5f, 0x6e,
  0x6f, 0x72, 0x6d, 0x61, 0x6c, 0x69, 0x7a, 0x61, 0x74, 0x69, 0x6f, 0x6e,
  0x5f, 0x31, 0x30, 0x2f, 0x46, 0x75, 0x73, 0x65, 0x64, 0x42, 0x61, 0x74,
  0x63, 0x68, 0x4e, 0x6f, 0x72, 0x6d, 0x56, 0x33, 0x32, 0x00, 0x00, 0x00,
  0x04, 0x00, 0x00, 0x00, 0x01, 0x00, 0x00, 0x00, 0x1e, 0x00, 0x00, 0x00,
  0x1e, 0x00, 0x00, 0x00, 0x10, 0x00, 0x00, 0x00, 0xec, 0xfe, 0xff, 0xff,
  0x18, 0x00, 0x00, 0x00, 0x28, 0x00, 0x00, 0x00, 0x48, 0x00, 0x00, 0x00,
  0x14, 0x00, 0x00, 0x00, 0x00, 0x00, 0x00, 0x09, 0xe8, 0x00, 0x00, 0x00,
  0x04, 0x00, 0x00, 0x00, 0xff, 0xff, 0xff, 0xff, 0x1e, 0x00, 0x00, 0x00,
  0x1e, 0x00, 0x00, 0x00, 0x10, 0x00, 0x00, 0x00, 0xcc, 0xf4, 0xff, 0xff,
  0x08, 0x00, 0x00, 0x00, 0x14, 0x00, 0x00, 0x00, 0x01, 0x00, 0x00, 0x00,
  0x80, 0xff, 0xff, 0xff, 0xff, 0xff, 0xff, 0xff, 0x00, 0x00, 0x00, 0x00,
  0x01, 0x00, 0x00, 0x00, 0xa2, 0x90, 0x48, 0x3c, 0xa4, 0x00, 0x00, 0x00,
  0x73, 0x65, 0x71, 0x75, 0x65, 0x6e, 0x74, 0x69, 0x61, 0x6c, 0x5f, 0x35,
  0x2f, 0x63, 0x6f, 0x6e, 0x76, 0x32, 0x64, 0x5f, 0x31, 0x35, 0x2f, 0x52,
  0x65, 0x6c, 0x75, 0x3b, 0x73, 0x65, 0x71, 0x75, 0x65, 0x6e, 0x74, 0x69,
  0x61, 0x6c, 0x5f, 0x35, 0x2f, 0x63, 0x6f, 0x6e, 0x76, 0x32, 0x64, 0x5f,
  0x31, 0x35, 0x2f, 0x42, 0x69, 0x61, 0x73, 0x41, 0x64, 0x64, 0x3b, 0x73,
  0x65, 0x71, 0x75, 0x65, 0x6e, 0x74, 0x69, 0x61, 0x6c, 0x5f, 0x35, 0x2f,
  0x63, 0x6f, 0x6e, 0x76, 0x32, 0x64, 0x5f, 0x31, 0x36, 0x2f, 0x43, 0x6f,
  0x6e, 0x76, 0x32, 0x44, 0x3b, 0x73, 0x65, 0x71, 0x75, 0x65, 0x6e, 0x74,
  0x69, 0x61, 0x6c, 0x5f, 0x35, 0x2f, 0x63, 0x6f, 0x6e, 0x76, 0x32, 0x64,
  0x5f, 0x31, 0x35, 0x2f, 0x43, 0x6f, 0x6e, 0x76, 0x32, 0x44, 0x3b, 0x73,
  0x65, 0x71, 0x75, 0x65, 0x6e, 0x74, 0x69, 0x61, 0x6c, 0x5f, 0x35, 0x2f,
  0x63, 0x6f, 0x6e, 0x76, 0x32, 0x64, 0x5f, 0x31, 0x35, 0x2f, 0x42, 0x69,
  0x61, 0x73, 0x41, 0x64, 0x64, 0x2f, 0x52, 0x65, 0x61, 0x64, 0x56, 0x61,
  0x72, 0x69, 0x61, 0x62, 0x6c, 0x65, 0x4f, 0x70, 0x00, 0x00, 0x00, 0x00,
  0x04, 0x00, 0x00, 0x00, 0x01, 0x00, 0x00, 0x00, 0x1e, 0x00, 0x00, 0x00,
  0x1e, 0x00, 0x00, 0x00, 0x10, 0x00, 0x00, 0x00, 0x14, 0x00, 0x1c, 0x00,
  0x18, 0x00, 0x17, 0x00, 0x10, 0x00, 0x0c, 0x00, 0x08, 0x00, 0x00, 0x00,
  0x00, 0x00, 0x04, 0x00, 0x14, 0x00, 0x00, 0x00, 0x18, 0x00, 0x00, 0x00,
  0x28, 0x00, 0x00, 0x00, 0x44, 0x00, 0x00, 0x00, 0x13, 0x00, 0x00, 0x00,
  0x00, 0x00, 0x00, 0x09, 0x4c, 0x00, 0x00, 0x00, 0x04, 0x00, 0x00, 0x00,
  0xff, 0xff, 0xff, 0xff, 0x1e, 0x00, 0x00, 0x00, 0x1e, 0x00, 0x00, 0x00,
  0x03, 0x00, 0x00, 0x00, 0xf4, 0xf5, 0xff, 0xff, 0x08, 0x00, 0x00, 0x00,
  0x10, 0x00, 0x00, 0x00, 0x01, 0x00, 0x00, 0x00, 0x80, 0xff, 0xff, 0xff,
  0xff, 0xff, 0xff, 0xff, 0x01, 0x00, 0x00, 0x00, 0xcb, 0xdc, 0x6e, 0x3b,
  0x0c, 0x00, 0x00, 0x00, 0x74, 0x66, 0x6c, 0x2e, 0x71, 0x75, 0x61, 0x6e,
  0x74, 0x69, 0x7a, 0x65, 0x00, 0x00, 0x00, 0x00, 0x04, 0x00, 0x00, 0x00,
  0x01, 0x00, 0x00, 0x00, 0x1e, 0x00, 0x00, 0x00, 0x1e, 0x00, 0x00, 0x00,
  0x03, 0x00, 0x00, 0x00, 0x1e, 0xf5, 0xff, 0xff, 0x14, 0x00, 0x00, 0x00,
  0x34, 0x00, 0x00, 0x00, 0x12, 0x00, 0x00, 0x00, 0x00, 0x00, 0x00, 0x02,
  0x5c, 0x00, 0x00, 0x00, 0x54, 0xf6, 0xff, 0xff, 0x08, 0x00, 0x00, 0x00,
  0x14, 0x00, 0x00, 0x00, 0x01, 0x00, 0x00, 0x00, 0x00, 0x00, 0x00, 0x00,
  0x00, 0x00, 0x00, 0x00, 0x00, 0x00, 0x00, 0x00, 0x01, 0x00, 0x00, 0x00,
  0xac, 0xe0, 0x68, 0x39, 0x2c, 0x00, 0x00, 0x00, 0x73, 0x65, 0x71, 0x75,
  0x65, 0x6e, 0x74, 0x69, 0x61, 0x6c, 0x5f, 0x35, 0x2f, 0x64, 0x65, 0x6e,
  0x73, 0x65, 0x5f, 0x31, 0x37, 0x2f, 0x42, 0x69, 0x61, 0x73, 0x41, 0x64,
  0x64, 0x2f, 0x52, 0x65, 0x61, 0x64, 0x56, 0x61, 0x72, 0x69, 0x61, 0x62,
  0x6c, 0x65, 0x4f, 0x70, 0x00, 0x00, 0x00, 0x00, 0x01, 0x00, 0x00, 0x00,
  0x03, 0x00, 0x00, 0x00, 0x96, 0xf5, 0xff, 0xff, 0x14, 0x00, 0x00, 0x00,
  0x30, 0x00, 0x00, 0x00, 0x11, 0x00, 0x00, 0x00, 0x00, 0x00, 0x00, 0x09,
  0x48, 0x00, 0x00, 0x00, 0xcc, 0xf6, 0xff, 0xff, 0x08, 0x00, 0x00, 0x00,
  0x10, 0x00, 0x00, 0x00, 0x01, 0x00, 0x00, 0x00, 0x00, 0x00, 0x00, 0x00,
  0x00, 0x00, 0x00, 0x00, 0x01, 0x00, 0x00, 0x00, 0xa9, 0xa5, 0xac, 0x3b,
  0x1c, 0x00, 0x00, 0x00, 0x73, 0x65, 0x71, 0x75, 0x65, 0x6e, 0x74, 0x69,
  0x61, 0x6c, 0x5f, 0x35, 0x2f, 0x64, 0x65, 0x6e, 0x73, 0x65, 0x5f, 0x31,
  0x37, 0x2f, 0x4d, 0x61, 0x74, 0x4d, 0x75, 0x6c, 0x00, 0x00, 0x00, 0x00,
  0x02, 0x00, 0x00, 0x00, 0x03, 0x00, 0x00, 0x00, 0x08, 0x00, 0x00, 0x00,
  0xfe, 0xf5, 0xff, 0xff, 0x14, 0x00, 0x00, 0x00, 0x34, 0x00, 0x00, 0x00,
  0x10, 0x00, 0x00, 0x00, 0x00, 0x00, 0x00, 0x02, 0x5c, 0x00, 0x00, 0x00,
  0x34, 0xf7, 0xff, 0xff, 0x08, 0x00, 0x00, 0x00, 0x14, 0x00, 0x00, 0x00,
  0x01, 0x00, 0x00, 0x00, 0x00, 0x00, 0x00, 0x00, 0x00, 0x00, 0x00, 0x00,
  0x00, 0x00, 0x00, 0x00, 0x01, 0x00, 0x00, 0x00, 0xc4, 0xa8, 0x5d, 0x39,
  0x2c, 0x00, 0x00, 0x00, 0x73, 0x65, 0x71, 0x75, 0x65, 0x6e, 0x74, 0x69,
  0x61, 0x6c, 0x5f, 0x35, 0x2f, 0x64, 0x65, 0x6e, 0x73, 0x65, 0x5f, 0x31,
  0x36, 0x2f, 0x42, 0x69, 0x61, 0x73, 0x41, 0x64, 0x64, 0x2f, 0x52, 0x65,
  0x61, 0x64, 0x56, 0x61, 0x72, 0x69, 0x61, 0x62, 0x6c, 0x65, 0x4f, 0x70,
  0x00, 0x00, 0x00, 0x00, 0x01, 0x00, 0x00, 0x00, 0x08, 0x00, 0x00, 0x00,
  0x76, 0xf6, 0xff, 0xff, 0x14, 0x00, 0x00, 0x00, 0x30, 0x00, 0x00, 0x00,
  0x0f, 0x00, 0x00, 0x00, 0x00, 0x00, 0x00, 0x09, 0x48, 0x00, 0x00, 0x00,
  0xac, 0xf7, 0xff, 0xff, 0x08, 0x00, 0x00, 0x00, 0x10, 0x00, 0x00, 0x00,
  0x01, 0x00, 0x00, 0x00, 0x00, 0x00, 0x00, 0x00, 0x00, 0x00, 0x00, 0x00,
  0x01, 0x00, 0x00, 0x00, 0x9d, 0x08, 0x8a, 0x3b, 0x1c, 0x00, 0x00, 0x00,
  0x73, 0x65, 0x71, 0x75, 0x65, 0x6e, 0x74, 0x69, 0x61, 0x6c, 0x5f, 0x35,
  0x2f, 0x64, 0x65, 0x6e, 0x73, 0x65, 0x5f, 0x31, 0x36, 0x2f, 0x4d, 0x61,
  0x74, 0x4d, 0x75, 0x6c, 0x00, 0x00, 0x00, 0x00, 0x02, 0x00, 0x00, 0x00,
  0x08, 0x00, 0x00, 0x00, 0x10, 0x00, 0x00, 0x00, 0xde, 0xf6, 0xff, 0xff,
  0x14, 0x00, 0x00, 0x00, 0x34, 0x00, 0x00, 0x00, 0x0e, 0x00, 0x00, 0x00,
  0x00, 0x00, 0x00, 0x02, 0x5c, 0x00, 0x00, 0x00, 0x14, 0xf8, 0xff, 0xff,
  0x08, 0x00, 0x00, 0x00, 0x14, 0x00, 0x00, 0x00, 0x01, 0x00, 0x00, 0x00,
  0x00, 0x00, 0x00, 0x00, 0x00, 0x00, 0x00, 0x00, 0x00, 0x00, 0x00, 0x00,
  0x01, 0x00, 0x00, 0x00, 0x8e, 0xa7, 0x22, 0x38, 0x2c, 0x00, 0x00, 0x00,
  0x73, 0x65, 0x71, 0x75, 0x65, 0x6e, 0x74, 0x69, 0x61, 0x6c, 0x5f, 0x35,
  0x2f, 0x64, 0x65, 0x6e, 0x73, 0x65, 0x5f, 0x31, 0x35, 0x2f, 0x42, 0x69,
  0x61, 0x73, 0x41, 0x64, 0x64, 0x2f, 0x52, 0x65, 0x61, 0x64, 0x56, 0x61,
  0x72, 0x69, 0x61, 0x62, 0x6c, 0x65, 0x4f, 0x70, 0x00, 0x00, 0x00, 0x00,
  0x01, 0x00, 0x00, 0x00, 0x10, 0x00, 0x00, 0x00, 0x56, 0xf7, 0xff, 0xff,
  0x14, 0x00, 0x00, 0x00, 0x30, 0x00, 0x00, 0x00, 0x0d, 0x00, 0x00, 0x00,
  0x00, 0x00, 0x00, 0x09, 0x48, 0x00, 0x00, 0x00, 0x8c, 0xf8, 0xff, 0xff,
  0x08, 0x00, 0x00, 0x00, 0x10, 0x00, 0x00, 0x00, 0x01, 0x00, 0x00, 0x00,
  0x00, 0x00, 0x00, 0x00, 0x00, 0x00, 0x00, 0x00, 0x01, 0x00, 0x00, 0x00,
  0xff, 0x28, 0xca, 0x3a, 0x1c, 0x00, 0x00, 0x00, 0x73, 0x65, 0x71, 0x75,
  0x65, 0x6e, 0x74, 0x69, 0x61, 0x6c, 0x5f, 0x35, 0x2f, 0x64, 0x65, 0x6e,
  0x73, 0x65, 0x5f, 0x31, 0x35, 0x2f, 0x4d, 0x61, 0x74, 0x4d, 0x75, 0x6c,
  0x00, 0x00, 0x00, 0x00, 0x02, 0x00, 0x00, 0x00, 0x10, 0x00, 0x00, 0x00,
  0x88, 0x01, 0x00, 0x00, 0xbe, 0xf7, 0xff, 0xff, 0x14, 0x00, 0x00, 0x00,
  0x84, 0x00, 0x00, 0x00, 0x0c, 0x00, 0x00, 0x00, 0x00, 0x00, 0x00, 0x02,
  0xac, 0x00, 0x00, 0x00, 0xf4, 0xf8, 0xff, 0xff, 0x08, 0x00, 0x00, 0x00,
  0x48, 0x00, 0x00, 0x00, 0x08, 0x00, 0x00, 0x00, 0x00, 0x00, 0x00, 0x00,
  0x00, 0x00, 0x00, 0x00, 0x00, 0x00, 0x00, 0x00, 0x00, 0x00, 0x00, 0x00,
  0x00, 0x00, 0x00, 0x00, 0x00, 0x00, 0x00, 0x00, 0x00, 0x00, 0x00, 0x00,
  0x00, 0x00, 0x00, 0x00, 0x00, 0x00, 0x00, 0x00, 0x00, 0x00, 0x00, 0x00,
  0x00, 0x00, 0x00, 0x00, 0x00, 0x00, 0x00, 0x00, 0x00, 0x00, 0x00, 0x00,
  0x00, 0x00, 0x00, 0x00, 0x00, 0x00, 0x00, 0x00, 0x00, 0x00, 0x00, 0x00,
  0x08, 0x00, 0x00, 0x00, 0x91, 0xd5, 0xae, 0x38, 0x88, 0xec, 0xba, 0x38,
  0x11, 0x6e, 0xb0, 0x38, 0x3f, 0x69, 0xaf, 0x38, 0x3b, 0xb9, 0xa6, 0x38,
  0x08, 0x06, 0xbd, 0x38, 0x84, 0x31, 0xb9, 0x38, 0xe4, 0x11, 0xb5, 0x38,
  0x2d, 0x00, 0x00, 0x00, 0x73, 0x65, 0x71, 0x75, 0x65, 0x6e, 0x74, 0x69,
  0x61, 0x6c, 0x5f, 0x35, 0x2f, 0x63, 0x6f, 0x6e, 0x76, 0x32, 0x64, 0x5f,
  0x31, 0x37, 0x2f, 0x42, 0x69, 0x61, 0x73, 0x41, 0x64, 0x64, 0x2f, 0x52,
  0x65, 0x61, 0x64, 0x56, 0x61, 0x72, 0x69, 0x61, 0x62, 0x6c, 0x65, 0x4f,
  0x70, 0x00, 0x00, 0x00, 0x01, 0x00, 0x00, 0x00, 0x08, 0x00, 0x00, 0x00,
